[UNK]
[PAD]
[CLS]
[SEP]
[MASK]
!
"
#
$
%
&
'
(
)
*
+
,
-
.
/
0
1
2
3
4
5
6
7
8
9
:
;
<
=
>
?
@
[
\
]
^
_
`
a
b
c
d
e
f
g
h
i
j
k
l
m
n
o
p
q
r
s
t
u
v
w
x
y
z
{
|
}
~
¿
##q
##c
##d
##a
##t
##i
##u
##e
##r
##z
##n
##5
##1
##0
##f
##s
##b
##h
##m
##o
##j
##p
##k
##6
##4
##9
##8
##g
##l
##y
##w
##3
##x
##v
##2
##7
th
##ti
##on
##er
the
##es
##in
##en
##al
##or
##tion
##ed
of
##at
in
##ar
an
##an
##ro
##it
##ic
##ing
##is
and
##el
##ec
##ation
##et
to
##ur
##as
##ent
##om
##ac
##le
##st
##ul
for
we
##re
pro
##im
##ol
##od
st
con
##ve
is
##si
##ly
##tic
##ith
##em
##am
##uc
on
##ow
ex
##ig
with
##ou
##ect
##per
that
##ce
##il
##ity
##ter
com
re
##ra
##se
al
##um
##ot
##ri
##pl
##ate
##ver
##ab
as
wh
##tin
##ir
##ut
sp
mod
##id
##ff
##ts
##ge
this
##qu
##ting
be
res
##ations
are
by
##iz
##nd
comp
##os
de
##res
##ch
model
##ical
##ear
dis
sh
su
ap
en
ch
##ain
##orm
##tive
##ure
##tions
sy
##sion
at
##di
##rom
us
##oc
##ant
par
or
##igh
im
##ess
##th
##ag
##og
##form
ne
##ork
##ated
qu
##ence
##ay
from
##ers
##un
##pro
di
ac
##ich
met
cl
##ble
##op
tr
##ari
##etw
##ap
##ents
can
int
##vel
##if
##us
which
##ud
inter
ob
##duc
##ph
##ach
##ere
dat
ph
##ad
str
##and
##stem
mat
gen
##ally
un
system
##erm
##ore
sc
##tim
ad
##able
##ous
pr
co
bas
##rou
per
resul
show
gener
sim
##all
eff
cont
##ance
our
##str
##der
meth
##ies
method
##enti
tran
fin
op
##ign
##ass
##ment
appro
##ution
##ell
tim
rel
##end
##ati
diff
ev
##ties
data
##ary
ar
##ave
##rib
##uct
##ine
##ys
le
fi
prop
rec
##act
##ple
tw
non
##ular
based
##ric
anal
##ial
##ase
pres
##yn
it
se
##tical
##ility
##ace
##ves
me
##unc
##ion
det
high
##ort
##ates
pa
##ak
gra
using
##eld
inc
po
sol
these
des
two
##ound
##erg
##ens
pl
##ms
##uch
##ack
##ors
equ
em
##vi
results
func
##ization
##ech
time
##ong
##age
##enc
acc
##ory
##etwork
##plic
network
##low
##olog
##ose
el
mul
num
form
##vid
trans
differ
##so
##ning
vari
##erv
##est
proble
##ew
##ard
##iv
cor
dist
##ection
##ative
##rain
##ist
##tain
##ust
##ension
field
multi
##ynam
no
such
##agn
##oth
mo
also
models
##ures
##ram
##ite
und
##alu
##ree
reg
ext
##our
##gor
lear
sub
approach
##ight
stud
##een
es
paper
ab
have
##ron
##ics
betw
between
disc
##ep
##ang
##ability
##cess
##gh
##ex
study
exper
##ici
obs
##port
not
has
inf
over
##ating
under
struct
perform
lar
##ature
##ding
new
##yp
set
partic
man
ass
##ential
algor
algorith
sign
##ob
how
##amet
dim
##ax
##ely
##osed
pol
dec
exp
##ized
energ
dynam
one
meas
provid
##ific
scal
##ber
systems
##lu
char
dimension
##ip
##ual
math
general
their
col
##inear
present
learning
experim
super
observ
its
##les
##ry
grou
##anc
paramet
simul
more
##eg
##tional
loc
##ark
optim
##etic
##ther
elect
##ill
energy
li
problem
spect
fe
distrib
##ros
process
out
sur
state
##ational
magn
##ome
order
bound
low
sam
##onstr
analys
proper
##ject
ind
ag
##ue
dep
dem
work
##ib
sm
estim
quant
large
class
quantum
##ni
cur
##lex
rep
##ast
id
ver
space
##ural
different
fir
all
where
##vity
graph
compar
typ
##edic
both
##ile
##her
##ize
##ond
##pt
theory
##eng
##ev
analysis
real
first
applic
cou
##istic
##ise
##ied
##ral
pre
##ective
##fer
cons
up
##ency
spec
predic
consi
##int
group
##formation
when
const
##now
expl
red
interac
##rol
methods
##olution
##ected
##ail
well
comm
use
consider
##velop
lim
comput
##out
tech
proposed
corr
##mm
##ator
used
effect
tem
number
##sive
##ange
complex
fram
##ven
obtain
than
performance
been
control
depend
##acter
##utions
##ement
develop
vi
coll
algorithm
star
##ically
function
sing
##old
demonstr
dir
##ets
##sition
ra
##atic
into
##lud
oper
##icient
character
am
condi
##ian
mass
limit
desc
repres
##fic
know
att
##rac
##omet
phase
##mmet
hy
valu
cal
measur
##ks
ge
min
sel
##ving
##atter
dimensional
properties
local
resp
aut
##ide
##earch
tra
def
##over
##rough
##tig
sch
integ
uni
##ma
linear
sec
##ision
structure
term
impro
analy
he
intro
introduc
networks
some
information
there
produc
pot
only
##are
##vely
through
design
##ever
##ty
##ole
but
##ework
##ases
##vers
framework
##ons
train
20
##ress
##ined
##ish
##ub
radi
other
fl
##geb
##ensity
##ological
##ities
recent
case
##xim
dom
bl
while
propose
however
der
represent
##udi
rob
##ov
inv
##au
includ
##ental
find
plan
inves
##ology
cap
top
spin
##ments
accur
##ext
##row
pow
pos
10
reduc
##atis
##ive
##als
algeb
##avi
so
tas
investig
##ene
##ecti
phys
approxim
potential
beh
dynamics
distribution
lat
exam
numer
prob
fur
signific
##bit
##rop
identi
conf
requ
##nel
##ages
incre
power
##anti
temper
each
strong
determ
##acy
##ulation
level
##chi
##ross
finite
##aces
magnetic
##ality
then
##par
comb
constr
small
##ness
mon
electron
##echan
provide
particular
##ke
density
##sible
fre
##con
techni
techniqu
if
achi
sem
##andom
gal
##ted
##fy
allow
three
coupl
random
significant
surf
##atures
##ret
addi
sour
studi
most
##ators
symmet
##til
##ism
phot
er
##put
fact
giv
mechan
calc
functions
evalu
##ft
##aus
constrain
behavi
bi
demonstrate
single
##ength
##ns
datas
cod
##led
type
imp
##rent
discus
##ord
##ption
##assi
states
##oun
##astic
point
many
correl
gam
any
prot
app
car
##uld
clust
##ved
##ission
##ples
mean
##und
due
##ertain
##oci
lead
scale
given
max
parameters
applications
##cop
map
gl
minim
result
describ
dri
conc
sup
wave
may
##ix
classi
deep
neural
do
##ains
rem
deg
##por
##fication
##ward
chall
del
##ful
quanti
##tinu
here
##ym
temperature
discuss
##tivity
##ateg
cr
##verse
sever
##urb
mic
they
range
long
##tial
was
import
##otic
novel
##its
cent
rate
numerical
parameter
frequ
equation
##ences
experiments
efficient
##av
##ector
prove
flow
main
problems
av
##isting
spe
##cal
within
theor
##edi
##round
geomet
calcul
##ier
##vious
current
mak
conditions
##ines
conn
##ood
conver
known
algorithms
equations
found
##ta
##ays
##ice
##ath
obtained
##resp
neut
optimal
second
prog
bet
##ression
log
associ
##och
several
terms
free
previous
solution
region
##tice
syn
cri
##ensi
continu
corresp
stand
observed
simulations
theore
bec
detection
##orph
##ps
sequ
##ucle
via
exc
therm
extend
solutions
##abl
mathb
flu
##de
light
schem
##uring
multiple
transition
inst
maxim
ful
lang
la
##ements
research
algebra
##ces
surface
training
near
##gg
simil
statis
##plet
effects
will
err
simple
##ost
nucle
##ances
evolution
experimental
deriv
##ten
##onic
ser
##ables
times
pri
assum
including
commun
##abil
features
critical
ent
enh
spati
various
underst
prec
end
image
vis
##ough
similar
optical
size
##sc
like
improve
effective
##ock
nonl
##rix
##sp
galax
add
langu
compon
##arg
adv
bin
standard
pop
pair
##rid
compared
test
autom
##uman
norm
##izing
##inc
##ero
matrix
ke
##ration
imple
consist
robust
##rin
further
matter
induc
env
back
accuracy
self
##ings
##olec
##ind
##oy
ele
band
behavior
br
ed
lay
interaction
##erial
ini
same
adap
existing
##annel
fil
lo
tri
mach
supercon
##uction
important
##iron
##mentation
mom
even
mathbb
cos
fields
environ
##ination
without
##reat
##iod
superconduc
shown
foc
possible
cluster
##cc
formul
ray
analyz
optimization
hyper
##itud
##ras
##roscop
##tern
channel
wa
object
higher
about
direct
##ane
##ping
molec
strateg
associated
##omial
domain
very
text
fol
##ising
challeng
atom
nonlinear
groups
frequency
##raph
call
introduce
specific
polar
val
human
##usion
frac
classical
mem
particle
##00
nat
sugg
cy
techniques
focus
hom
vol
understand
noise
invari
metric
##ware
##ices
source
##ections
period
requir
interactions
investigate
weak
##ner
lattice
##ules
##ised
unc
were
##irc
tak
##iter
compu
##bed
exist
addition
##plicit
##ton
appl
##aging
task
spectral
sl
glob
observations
##ire
value
achie
wor
cosm
open
est
gu
##omp
##epend
##ensive
coun
language
measurements
##ld
stars
search
##ifold
##asi
##ified
need
tool
dev
##ablish
simulation
ref
##ploy
establish
mix
material
address
structures
theorem
way
approaches
interp
cell
##ract
gamma
posi
bu
independ
polyn
grow
four
orbit
##oid
give
orig
##ints
##rum
complet
##verage
application
##of
##ochastic
converg
enc
mark
stochastic
##ein
scen
finally
input
circ
sum
origin
avail
##fficient
polynomial
##ectively
theoretical
images
regular
related
##one
cross
provides
infer
cost
coupling
studies
black
alph
prom
construct
machine
classification
values
them
##onding
ear
follow
##onal
scatter
topological
allows
##ympt
path
nan
##ants
tasks
contrib
graphs
asympt
##asing
error
##ogene
arch
##turb
tun
##up
##oss
transform
approximation
ferm
##esting
zero
##ger
##ellar
asymptotic
off
lower
spectrum
thus
program
equiv
embed
##ling
lab
af
##ould
moment
key
scenari
context
##tics
boundary
during
processes
applied
formation
conduc
signal
corresponding
alpha
abs
prim
##ledge
ul
ang
patter
separ
##amb
spatial
##lying
knowledge
perturb
pers
aff
##iciency
##te
code
symmetry
independent
factor
##ense
representation
estimation
step
##lic
emission
valid
relations
spaces
targ
##ether
##ensor
reson
sample
nod
prac
##da
##hib
occ
manifold
computational
probability
consistent
##ank
available
mas
##ench
those
util
dataset
points
world
hel
identify
characteristic
functional
scheme
ep
generation
mu
physical
art
enhanc
rati
##line
across
loss
constant
indic
##ilib
vel
measure
line
##ety
ii
##ately
ide
medi
##cept
dynamic
##sian
cases
excit
##bility
resolution
recently
infin
constraints
certain
explicit
il
finding
##ule
mathcal
efficiency
##ount
bo
princ
datasets
initial
setting
##ture
veloc
relati
techn
quality
global
gaus
continuous
complexity
shap
dark
rm
##not
driven
indi
physics
##uted
hard
19
exact
expon
experiment
##ilibri
##ropy
##ects
rot
studied
##man
##ield
gas
report
##rete
##fore
##oint
subs
ques
natural
##eti
called
buil
fix
respon
significantly
dependent
achiev
##idence
gap
user
##amil
fut
short
bel
ens
201
prediction
soft
ret
pe
##itect
regim
sensi
sk
length
developed
reve
synth
common
architect
particles
transi
##ists
##ining
##ention
induced
vector
transport
##lo
future
uncertain
generated
##tically
invol
communic
phen
wid
often
presented
scattering
##osition
##izes
seg
sets
pi
stability
##view
##iss
##ern
coe
au
hand
##itude
##romagn
compact
motion
##sequ
require
exhib
ir
dynamical
technique
##jective
condition
osc
differential
##ced
fund
##eter
##ryst
better
convergence
proof
##bers
detail
correlation
law
##rm
individ
##ok
transfer
go
part
bro
distance
##ching
series
oscill
normal
neg
har
soc
sci
##omen
##eler
aim
gaussian
##ible
mechanism
examples
modeling
thermal
##therm
##ually
##rary
moreover
bre
##tal
derived
lamb
##ference
##ests
layer
presence
distributions
defined
role
insi
reconstr
interpret
could
cre
##ilibrium
##uctu
understanding
statistical
##que
fluctu
diffusion
operator
##omm
##ead
##ooth
equival
##fied
derive
sw
feature
toward
target
##igur
bod
pul
among
##ogeneous
surve
##ade
along
##dro
##thermore
furthermore
##vit
support
hal
##ink
environment
existence
ult
phenomen
##aneous
lambda
generalized
##red
##isms
individual
chang
collision
suc
ma
discrete
computation
##ots
after
ai
fundam
##tiv
describe
positive
##omorph
##tit
considered
fixed
ins
full
ground
##tices
gradi
##tor
transm
acceler
##ears
impact
caus
3d
weight
detect
smooth
learn
arbit
##ars
does
conv
gravit
few
pub
##ick
velocity
satis
increasing
sources
wide
explor
eng
central
less
stellar
delta
attack
cyc
##ift
om
##ecting
beam
##af
##ute
prof
cryst
rank
bounds
sequence
sin
social
##ably
binary
operators
yield
ll
##till
##ause
et
representations
##equ
ratio
fundamental
emerg
##vex
relev
hol
ell
##sh
shows
stable
##ior
employ
example
univers
dual
##ler
conject
dependence
ion
invariant
descri
fast
degree
occur
algebras
charge
average
ever
view
princi
estimate
##mark
coupled
achieve
##abilities
##ia
integr
##onom
configur
sampl
chem
##rast
galaxies
hole
##poral
decision
##esis
##ries
squ
sit
hydro
##taneous
##ymmet
ris
types
equilibrium
edge
shar
eig
resulting
molecular
spectra
##own
complete
being
explo
plas
##rem
ax
polic
emp
##ither
iss
symmetric
response
ampl
inference
ro
maximum
fac
processing
users
pur
special
body
diag
sig
##romagnetic
##read
best
geometry
explain
##for
development
##ecess
distributed
limited
computing
prior
ker
extension
accurate
parall
objects
visual
tor
##herent
##rees
influ
propag
altern
##ues
challenges
around
post
##ground
total
components
suggest
highly
implement
arg
bar
bench
dou
rates
unit
##itting
##bol
variables
eigen
discover
interf
speed
background
##hip
##ograph
evaluation
imaging
broad
lik
sn
volum
rest
whose
radio
##iting
comparis
interest
micro
action
let
component
sigma
uniform
##vari
memory
introduced
##ured
neutron
respect
attention
##gan
convex
cm
specif
good
entropy
version
##ticle
necess
regime
benchmark
##ily
label
anti
communication
review
fluid
##entially
success
expected
decay
momentum
modes
determine
flux
##vised
##ped
##ove
##ds
las
##arse
##back
##ega
decomp
integral
resour
trained
assess
reas
population
quad
##ogni
mode
speech
parallel
##ru
temporal
every
parti
relative
##zation
embedding
plane
sufficient
maj
liter
scaling
##lement
run
##lation
relation
gravitational
reveal
quasi
analyze
regions
bay
active
gradient
feed
12
much
leads
closed
output
##ult
empir
galaxy
core
extended
strongly
##urity
iter
major
estimates
##ming
extrem
gravity
neutrin
measurement
ha
##tonian
growth
analog
strategy
gi
cho
play
##forms
poly
break
##ased
omega
##osph
scalar
mathrm
apply
formal
sens
contain
arbitrary
##stein
since
##ions
bayes
proced
##ct
expan
fully
illu
##ification
##hom
nam
element
suit
lif
calculations
reac
solar
##cep
domin
measured
property
##veness
literature
##ired
outper
bounded
press
##raction
partial
strength
pm
change
again
illustr
nature
towards
construction
either
compute
materials
tensor
dimensions
gr
additional
expansion
selection
event
##ially
##quid
incor
patterns
encod
##nn
spectroscop
clou
geometric
classes
samples
therefore
clusters
##arch
respectively
intern
liquid
ess
larger
question
index
##oring
gau
product
fluctuations
compare
hamil
infinite
formula
##li
loop
filter
down
make
conven
able
##ater
survey
upper
increase
scenarios
reduction
nuclear
ca
beta
sym
mes
##val
##omes
making
##iral
devices
200
fam
massive
elements
priv
waves
##umin
reason
relevant
seman
##ream
tradi
consequ
agent
predictions
specifically
##ges
##eh
leading
track
##ering
concept
periodic
evaluate
maps
underlying
##war
architecture
explore
sampling
systematic
discussed
evidence
great
##actic
possi
##less
##ategor
reduced
##oper
connected
##gs
changes
kernel
adaptive
signals
photon
##atory
agents
still
wind
od
public
##resh
block
##ify
##lon
measures
ast
conjecture
predict
quark
##omal
##rices
fa
direction
refl
contrast
because
least
events
online
##ropic
account
designed
reli
resol
##brid
far
comparison
algebraic
minimal
recover
description
spl
electronic
##ded
gauge
above
align
matrices
incorpor
variable
##encies
##eck
scales
##ather
##isot
anomal
##ently
confir
hybrid
modul
##ffici
##produc
improved
uncertainty
shape
against
enti
right
insigh
ori
sat
had
generate
bayesian
arti
ren
lie
variety
##reg
##ium
bul
categor
##inal
risk
volume
##silon
production
provided
reach
##fficients
plat
##enge
coefficients
ord
electric
##aries
disk
close
challenge
described
##order
effecti
expression
hamiltonian
means
motiv
directly
tel
anisot
ans
findings
family
vary
laser
effectiveness
diffic
##pr
structural
curv
segmentation
software
factors
treat
hier
counter
practical
2d
##pc
obser
cle
automatic
pressure
radiation
traject
supp
hierarch
mathem
achieved
simultaneous
basis
should
feedback
convolution
semi
relationship
strategies
correlations
organ
##ital
years
challenging
##osity
thresh
correspond
link
##nov
negative
surfaces
15
performed
joint
required
previously
inequ
regression
##br
nodes
restric
requires
##ptions
decre
##vistic
##hood
##olation
turb
rh
advers
implementation
extract
traditional
##ener
singular
solve
superconducting
chemical
area
capac
article
adj
##cd
serv
made
reconstruction
##ynamic
##eline
##ides
extern
relax
empirical
planet
spher
##ologies
11
manifolds
tools
recomm
##eless
arra
chain
heter
whether
precision
saf
pse
curves
##cs
domains
determined
numbers
universal
##elect
transitions
magnet
theories
cd
tur
unique
pseud
combin
##reement
distin
##ef
electro
orient
bey
fail
investigated
##gen
beyond
rap
diagram
extensive
would
##olds
magnitude
word
force
generalization
##bi
exhibit
engine
sparse
##monic
cond
absor
##imin
##eness
##by
determin
pack
##ared
coord
##though
##ument
##ibility
puls
useful
cand
although
cruc
##atively
rig
analytical
monte
ultra
peak
external
curvature
detector
demonstrated
##time
inverse
##avy
asp
hor
conventional
transmission
carlo
##ategory
##tors
##ante
##ighb
collisions
##plac
neighb
polarization
characteristics
infty
difference
med
vir
dig
double
advant
fermi
agreement
computer
guar
##ficial
##vial
access
uses
presents
quas
##bolic
propos
phases
reduce
##na
##sk
metrics
disorder
influence
relativistic
guarante
##icon
rapid
##ash
appear
heavy
##jection
##ognition
candid
cosmic
veh
schemes
vehic
esp
##most
##izations
quer
include
wavel
##atch
vac
##ometric
turbul
following
van
quantit
policy
cover
##isation
hist
enables
solving
##ition
condens
procedure
atomic
##alth
##art
environments
##ights
land
disper
##ording
dop
ensem
security
te
original
##reh
pairs
equivalent
neutrino
enhanced
microscop
reproduc
project
auth
flex
highl
answ
emph
sensitivity
mechanisms
statistics
intell
defin
what
category
observation
vide
##lusion
cosmological
clustering
early
eigenv
station
##den
##anced
position
clos
100
ability
compreh
yet
subset
act
##fs
perm
rein
##king
approximate
espec
lumin
bal
exch
especially
almost
recur
heat
subject
crucial
##xt
tree
simpl
##abor
center
recognition
providing
##ises
objective
##yl
##ans
interacting
plasma
adm
testing
codes
hyp
concent
##ressed
##rag
slow
contribution
##ores
instr
become
ring
criter
metal
robot
levels
##ored
medium
suitable
remains
content
minimum
subg
intellig
rich
cloud
mill
thermod
confirm
13
necessary
##rang
scenario
masses
privacy
##eli
bene
##bly
energies
##pa
##itt
##bs
##arrow
##rating
##arily
atoms
define
situ
cannot
##ged
fine
##son
entang
bos
adop
##eman
bulk
mac
##medi
exponential
##to
adversari
grid
graphene
combination
rece
conform
ellip
decomposition
achieves
limits
help
fer
insp
angular
fit
covari
propagation
promising
adapt
detailed
weighted
##forc
next
bias
particularly
##ectors
resonance
capture
##gn
water
interface
varying
analytic
principle
bran
flat
threshold
ri
##ening
combined
interesting
robustness
evol
asymmet
galactic
carri
distinct
##ope
lines
life
coherent
construc
chiral
protoc
adversarial
##ithm
importance
##berg
activity
##chron
##rical
cat
alternative
##enting
supervised
##rins
202
##nian
synthetic
##ormal
hypoth
lack
##ease
dust
mapping
##escop
polynomials
kine
lever
game
sequences
recommend
gives
static
telescop
forms
essential
horiz
decod
mixed
discre
below
fraction
goal
subst
generating
##other
aug
topology
summ
nu
correct
protocol
retri
depends
behaviour
capacity
successful
##bert
modules
consum
offer
channels
gain
integrated
holes
lag
flows
attacks
##atical
##pri
tail
produce
regard
increases
##know
redsh
must
depth
science
##sip
angle
widely
remain
effectively
formulation
considering
##ogen
##rt
accre
##tt
spectroscopy
##zed
square
constrained
preserv
sensitive
autonom
popular
ga
##iver
rather
curve
avoid
characterization
generative
desp
elastic
errors
universe
illustrate
tog
layers
notion
bur
established
orbital
##ories
smaller
overall
contact
together
orth
additionally
##instein
phi
despite
semantic
##forcement
outperforms
identified
facil
mi
exchange
vert
localization
coordin
competi
trap
stage
pattern
sq
##ring
ml
##ratic
insul
artificial
thin
##iti
upd
##omorphic
dissip
den
dense
convolutional
persp
phon
##play
observe
rational
##struct
eigenvalu
markov
##sm
solid
assumptions
16
modified
appropri
constructed
matching
calib
temperatures
works
rotation
isot
programming
characterize
##ne
cam
##ynamics
##ott
latter
multiplic
radius
namely
deploy
##roph
left
sil
stream
agg
unknow
dwar
efficiently
treatment
monit
typically
calculate
metall
identification
community
einstein
##ways
##electric
collabor
##omb
14
mathematical
##ci
intrins
diagn
##oph
integration
##itz
showing
purp
##osi
degener
audi
health
atm
building
cooper
tuning
wavelength
another
satisfy
reinforcement
makes
ideal
merg
homogeneous
conserv
brain
connection
correlated
rang
module
abund
##mediate
##rared
realistic
amplitude
predicted
##bo
resid
guid
implic
infrared
technology
llms
combinator
##10
tau
tests
swit
atmosph
##ild
constraint
molecules
host
scienti
insights
according
##flow
instead
delay
rev
visc
gre
nm
##wise
interference
demand
detected
unknown
##plan
configuration
phenomena
capt
pass
improvement
characterized
benef
comprehensive
generic
initi
autonomous
categories
clear
hadron
node
wal
electrons
wir
##ensities
indicate
##bon
horizon
rieman
driving
differences
qcd
cells
electromagnetic
issues
rely
earth
##alities
##ters
##let
dip
##alog
fractional
##elian
relaxation
vertex
separation
forward
resource
substanti
perturbation
quantitative
upon
diverse
mechanical
read
##ocks
stationary
morph
reaction
##eric
variational
magneti
quadratic
devi
media
device
attrib
##elihood
ones
digital
basic
##he
cohom
calculated
manip
parad
protein
produced
##inary
locally
hyperbolic
simulated
degrees
crystal
likelihood
array
theta
variation
sense
diagnos
match
probabil
spread
triang
##ulations
simultaneously
maintain
yields
impl
leq
ec
probabilistic
##arities
hydrod
vo
##ae
epsilon
dirac
##edom
estimator
retriev
##tz
exists
traff
accretion
absorption
gev
video
becomes
explicitly
##net
shift
circu
larg
##utes
typical
medical
planning
##isted
##ayer
##icity
evaluated
30
hence
includes
trivial
##agement
logic
##onical
settings
##raw
cool
virt
harmonic
traffic
##emic
difficult
count
dispersion
instability
aggreg
applying
take
assumption
sensing
diver
##come
##fect
mob
##here
allowing
perturbations
reported
coefficient
half
sensor
breaking
experimentally
##su
bund
si
hop
configurations
internal
final
latent
##uments
##aster
thir
facilit
issue
cut
ensemble
big
computed
involving
contains
cha
market
lens
intensity
methodology
var
string
econ
estimated
abelian
##ned
enhance
cas
##ography
kinetic
having
intrinsic
actions
classif
enable
clin
integer
mut
depending
implications
jet
##utative
last
amount
##uish
mis
appropriate
##elf
implemented
##cale
geq
25
combining
gover
reference
doc
precise
choice
intermediate
sqrt
proved
tracking
##ends
continuum
controlled
tex
entanglement
##omic
photo
glass
aspects
platform
improves
generally
probe
load
solit
radial
equal
superconductivity
##ematic
ox
orders
inters
pati
experi
taking
consists
wall
partition
improving
reasoning
50
inver
transformation
width
variations
analyzed
hall
though
ps
operations
dam
safety
18
dr
supernov
satisf
##hz
excitation
exec
mixing
questions
before
operation
potentials
synchron
see
motivated
audio
base
##off
canonical
extra
##cent
exploit
ly
proton
color
similarity
embedded
inflation
section
predictive
expect
fermion
##oustic
likely
##orous
##rable
acqu
##ict
luminosity
capabilities
hil
polym
vacu
canc
examine
sharp
htt
side
deterministic
##ocation
thick
##isson
discovery
hierarchical
##ug
stress
contributions
gp
##ili
##urally
limitations
stabil
qual
orthog
interpretation
til
aims
speak
numerically
concer
##herence
automated
poisson
annot
complement
##des
relatively
rules
baseline
calculation
variance
sky
pen
##ortex
telescope
enhancement
suggests
##ceed
##otyp
mobile
##orts
resources
##acts
ow
purpose
lh
detectors
agn
possibility
cohomology
remark
rho
##way
species
engineering
inner
collap
##lish
maximal
##ectivity
explan
third
##ote
redshift
synthesis
causal
hardware
five
nuclei
famil
elliptic
mm
games
requirements
vertices
fair
densities
edges
hub
##rs
charged
might
forec
halo
products
##ull
pb
combinatorial
enabl
conditional
perspective
sound
##ancy
##ressive
true
rule
conduct
##ometry
rise
vanish
##eties
scientific
draw
datab
renormal
wireless
aver
##ipar
deform
hilbert
##ites
##idden
exhibits
cp
primary
heterogeneous
cub
ms
lin
phenomenon
##ips
bary
prefer
formalism
cycle
hig
paradig
fourier
##uter
stra
powerful
axis
faster
usually
profile
subsequ
transverse
preserving
web
affine
conclud
modern
bright
##times
##odes
##tinguish
##ump
parametric
hot
vacuum
mitig
cavity
##ems
frame
qualit
brow
shear
wr
##idth
needed
she
ram
enabling
sr
distinguish
modelling
age
past
ur
acoustic
always
architectures
##ins
principles
inequality
query
particip
location
management
##iles
accurately
subgrou
weights
increased
inform
##ucl
move
extreme
stat
##olar
employed
perfect
abstr
aware
retrieval
introduces
planar
turbulence
higgs
net
equivalence
oscillations
air
shif
trade
superior
cop
comparable
learned
fusion
kind
seen
alignment
now
spherical
note
##itely
trig
pip
inspired
conformal
quantify
dm
##inement
pc
mim
compan
##atives
freedom
17
localized
taken
##era
virtual
lhc
volt
trees
##yc
suppor
eas
consistency
weakly
covid
##rophys
collective
frequencies
##uration
assi
##ands
acceleration
intelligence
check
comparing
shell
trajectories
vision
marg
pic
##oidal
##ging
##avor
anisotropic
##osite
##ake
areas
##erge
##ectic
astrophys
##ulated
invariants
mechanics
extraction
discr
sus
kin
robotic
mid
##aged
reduces
classify
vectors
https
bor
inside
fu
vortex
mc
clinical
carbon
box
selected
fill
coding
orthogonal
##rial
assuming
monot
##ocal
##ractive
pure
##lier
##bles
naturally
##unction
##eady
tight
##mann
pseudo
iii
##ape
achieving
gith
##20
biological
github
ic
projective
directions
structured
build
tested
##erior
stri
supers
sizes
##ids
score
##oplan
conducted
advantage
identifying
moving
care
##ii
##uth
ct
propor
white
trajectory
proposes
rigid
imm
beli
hypothesis
satell
implies
discreti
strain
##ived
fr
offers
completely
llm
variability
modular
translation
reducing
monitoring
##anning
highlight
sphere
generalize
easi
nois
compati
easily
embeddings
vers
mal
commonly
mess
argue
barri
anomalous
compression
face
##rad
##cri
##nns
unli
flexible
composition
disease
advanced
capable
##mon
##imet
mev
neutral
##omorphism
##iers
neur
varieties
eucl
whole
qubit
reveals
mus
unified
practice
planets
cold
analyses
##rangian
##oming
stor
turn
lagrangian
interfer
corrections
lattices
containing
sched
potentially
tunnel
miss
studying
candidate
reliable
thermodynamic
diffu
sequential
##width
resolved
##sts
valued
concentration
pulse
splitting
distances
fron
analyzing
##elines
##tively
forming
steps
sa
estimators
profiles
technologies
##flu
families
storage
##hed
deformation
##els
moments
steady
consequence
bands
bra
neighbor
correction
odot
expressions
hydrogen
asymptotically
branch
enough
idea
##plectic
constit
##ley
##co
formed
ads
stack
hidden
nearly
paradigm
##cepts
##odal
iterative
##ai
photons
collection
progress
takes
validate
interval
exploration
conj
answer
projection
demonstrates
40
glu
youn
approximations
expand
poor
frag
uncertainties
instance
##ken
overl
subsp
ill
entire
bose
##aves
record
service
robots
improvements
multim
absol
describes
chains
recon
occurs
##versity
##ata
smart
nl
modulation
##rog
21
observational
##ss
thereby
##ffer
forces
shock
estimating
developing
transl
##arithm
noisy
behaviors
differenti
computationally
eta
photonic
manner
sensors
sufficiently
shot
transmit
currently
##portun
counterpar
opportun
solved
calibration
connections
definition
residual
investigation
voltage
##zz
exactly
orbits
describing
phonon
fermions
concepts
quantities
cnn
parts
ste
##ares
films
##ectives
arising
extensions
##igu
root
superconductors
##ze
homology
bit
six
evolutionary
arise
successfully
place
regimes
criterion
whereas
spatially
detecting
ball
mixture
theoretic
regularization
24
##mented
outperform
##ittle
erg
posterior
approximately
symmetries
verify
persist
##idean
##action
conclude
##itive
war
narrow
policies
uniqu
resonant
euclidean
leveraging
pix
##uler
unsu
bil
caused
utility
populations
##set
dwarf
showed
##olated
nano
accoun
researchers
div
nav
py
consisting
paths
##istance
##go
controller
##ularities
holds
bott
##ticles
emphas
create
diverg
mesh
opp
assem
site
controll
##ographic
neu
tre
vehicle
built
crystals
activ
##ited
refer
##side
##ception
symplectic
cooling
vul
anisotropy
deal
collapse
mil
mar
scalable
prime
rad
microscopic
implicit
assessment
assign
##vent
collected
##osing
diversity
##rel
antifer
words
optimized
guarantees
auto
cust
##rak
confidence
vor
bol
inherent
mir
growing
inputs
mathbf
young
disks
inequalities
excitations
meta
candidates
allocation
starting
directed
##inger
ratios
involves
theoretically
earlier
cs
##pervised
##fact
attem
automatically
rou
extracted
scre
lor
dipole
##oh
vib
##ious
relies
##cepti
recommendation
transformer
custom
rings
costs
##gc
introducing
formulas
mainly
advantages
vulner
fab
discon
strict
verification
unsupervised
overlap
ber
port
logarithm
predicting
##unctions
##ymmetric
quench
dominated
vehicles
links
my
get
semicon
tev
##vities
navig
substr
measuring
inhom
anten
##oles
##itudes
labor
unlike
underg
absence
performing
herm
extremely
individuals
speaker
uv
##abol
labels
languages
##urf
##oti
coinc
comple
dissipation
restricted
nucleon
focusing
##ready
already
##otop
adaptation
rays
##mc
silicon
##lin
personal
fract
carried
conductivity
trust
vl
rotating
##uristic
##ulate
emo
eigenvalues
little
reconstruct
fitting
gw
##gr
limiting
##itten
rl
coherence
da
just
dil
polarized
##paramet
nonc
cite
excited
princip
regularity
negl
##comes
who
23
##isely
covariance
cli
partially
appears
bri
mor
greater
##osen
prototyp
programs
euler
spacetime
affect
22
conclusion
np
laws
fid
transformations
sal
##ik
distor
forecas
missing
##fluid
brid
green
meaning
exponent
kinematic
circular
rough
imag
emerging
rigorous
odd
determining
##reduc
microw
##sim
needs
discrimin
suscepti
unst
##ky
km
transient
price
ordered
capability
technical
circum
compound
fiber
semiconduc
mobility
binding
drop
chi
textit
##kin
utilizing
##erc
sun
jac
itself
increasingly
##50
oriented
riemannian
weyl
bond
criteria
switching
psi
trace
reward
superconductor
trigger
leg
giant
consumption
spac
duality
precisely
spon
absolute
multivari
pairing
pp
employing
homotop
look
degenerate
##band
##ople
##cence
eu
ensure
validation
asymmetric
bes
database
assumed
extends
theorems
people
difficul
soci
cancer
planetary
pd
singularities
##load
cellular
ions
outer
##frak
financ
retur
dominant
ising
principal
mathfrak
renormalization
##elastic
spontaneous
insulator
simplic
applicable
sections
##oll
competitive
ld
observables
relationships
benefits
##rence
desired
anomaly
brief
recovery
connectivity
bandwidth
advances
overcome
assume
history
attract
correspondence
##ystem
publish
done
microwave
##aw
##head
boson
represented
##ogeneity
coul
additive
##idal
analytically
explored
quantization
heuristic
summar
##enberg
possibly
crystall
diagonal
plays
spectroscopic
financial
trac
##itation
##ker
coverage
reliability
coulomb
mag
##ighting
approx
cu
na
subm
regarding
probabilities
irreduc
##asible
substantial
000
infinity
balance
focused
##ession
##pts
radiative
operating
multivariate
##tr
onto
adjust
mission
geodes
compatible
casc
electrical
##anck
nor
##ades
constants
automorph
revealed
turbulent
understood
##bl
oth
details
tunneling
##tivities
plac
catalog
excess
services
##oys
ni
spars
innov
##app
unf
##iding
##stream
boundaries
fabric
##eting
never
own
tend
decays
emergence
mn
synthes
invariance
emit
ways
discussion
derivative
fo
schr
decoding
author
magnetization
others
largest
interplay
proxim
surveys
##aps
surpr
conversion
planck
astrophysical
fal
dc
moduli
abundance
##ube
tack
circuit
reflection
##oses
barrier
chosen
##assive
astr
bf
bh
window
excell
experience
designs
cycles
insight
rapidly
pipeline
sharing
jacob
iden
suggested
queries
follows
acces
##ones
permut
manipulation
modal
demon
unitary
discovered
##gu
later
sent
document
indicates
iner
units
shared
##bal
travel
usual
##stellar
easy
proportional
doped
authors
kap
list
##bur
landau
pt
signatures
encoder
chaotic
decisions
economic
counting
cyclic
##ours
##dinger
hydrodynamic
##ologically
split
subt
##eed
satellite
isotropic
recurrent
viol
mirr
setup
members
day
ferromagnetic
polymer
platforms
##parent
film
equip
extending
resonances
running
outcomes
evaluating
supported
instances
decrease
incorporating
fed
exoplan
environmental
sd
cogni
execution
##econd
##ski
199
unstable
mri
beg
represents
##okes
tum
determination
classifier
viscosity
modeled
combines
nn
##osp
##imeter
binaries
exceed
astronom
##ply
##place
carry
uncon
schedul
diagrams
constructing
##oli
deliver
topic
##ided
##urc
disordered
##lass
##uting
allowed
dielectric
##ensus
rare
pin
cla
tiss
##entz
moder
homotopy
changing
demonst
##ident
membr
##onses
convers
created
vanishing
responses
##ders
hold
sites
##abolic
tc
irreducible
##ode
throughput
accept
enhancing
flo
orientation
excellent
intersection
arithm
ordinary
fidel
computations
cognitive
uniformly
cause
leverage
advanc
etc
##ee
##pler
##uli
identity
discontinu
perturbative
##12
##eta
epid
reactions
superfluid
ded
benchmarks
filtering
supernova
realized
sf
pion
couplings
atmospheric
##kov
produces
involved
dro
macroscop
demonstrating
microscopy
targets
##we
monol
biom
##ogn
dl
metallicity
doping
revers
drift
educ
dynamically
clouds
handle
thickness
feas
poss
latency
slight
quadr
##igrou
twisted
defects
surround
abstract
concentr
##ending
stokes
replic
lorentz
piec
##izable
exploiting
ordering
qualitative
multimodal
##epsilon
optimize
proofs
coordinate
hierarchy
eigenvalue
ranging
longitud
varepsilon
commutative
pay
highest
cup
combine
sector
polyt
60
survi
nanop
patients
ghz
generates
ideas
surprising
isolated
##oids
##abatic
##radi
##opes
descent
explained
brownian
formulate
guarantee
secondary
indeed
designing
fidelity
##rically
envelop
penal
##ox
sti
parity
consequences
covering
##az
##ilities
integrable
##well
1d
intu
90
iot
interfaces
decreases
longer
kappa
null
condensate
bus
protocols
variant
solv
##tine
##apor
sty
conjug
collaboration
##menting
preser
elementary
interven
##ruct
closely
dna
bundle
curr
arithmetic
diagnosis
##rich
exploring
deployment
too
systematically
##iness
##sibility
coarse
equivari
expressed
hopf
wise
observable
tom
pulses
facilitate
holog
room
##vals
compr
velocities
possess
satisfies
claim
ngc
publicly
00
replac
gran
her
##diabatic
composed
cosmology
##ometer
relativity
complic
##placian
posed
rotational
bub
blocks
inversion
mel
macroscopic
hd
analogous
mr
quite
eth
suggesting
kev
arises
performs
torus
molecule
encoding
minimization
published
##etary
internet
switch
longitudinal
singularity
laplacian
logarithmic
semigrou
indust
requiring
mer
knot
filam
complexes
##racting
outflow
students
relevance
algorithmic
ergod
satisfying
realization
heating
introduction
signature
pixel
display
nearest
camera
corresponds
labeled
conservation
sen
ss
team
occup
spi
communities
explanation
bif
integrating
feasibility
linearly
##pot
perc
dot
torsion
semantics
fall
##itian
instrument
proven
cubic
diamet
belong
colum
##ading
simulate
arrays
careful
quoti
serve
tension
affected
##imension
applicability
ter
maintaining
located
shapes
neutrinos
asymmetry
newton
secure
situations
repe
augmented
recogn
##dial
formulated
rf
year
validated
##ositions
confirmed
hu
mpc
bundles
numerous
landsc
variants
late
subspace
jets
contribute
consistently
utilize
xi
trunc
integrals
squares
representing
separate
included
##eq
divid
modification
ba
fri
cooperative
##ban
metallic
hermitian
sparsity
effort
synchronization
scheduling
ann
##har
timing
failure
proj
##ilation
positions
##rob
shifts
picture
reproduce
equivariant
led
uniqueness
##ude
##rastruct
wavegu
false
identif
divergence
chrom
guided
##rap
ban
feasible
named
tang
##enced
concerning
accelerated
deviation
instant
mathematic
pose
efforts
##arity
papers
calculus
overview
80
attractive
cdot
navigation
ol
inclusion
holograph
fold
fluctuation
##structures
searches
music
locations
derivatives
flexibility
infrastruct
finitely
coordinates
##ana
validity
volati
sv
straight
consequently
holomorphic
riemann
prompt
evolving
tuned
beams
md
##entric
repul
circuits
##ensively
vs
sust
antiferromagnetic
##aton
walk
consensus
##point
largely
##ba
displac
nucleus
responsible
indicating
round
confined
participants
generator
stronger
genetic
cour
purely
independently
oscillation
zeta
arri
diffraction
multic
tens
ia
subgroup
minimizing
clim
bir
##ressible
update
##ame
release
revis
boltz
decent
situation
forecasting
identical
kernels
##sing
optimizing
followed
threat
turns
exponentially
grained
##hd
ns
gold
essentially
predicts
##acle
boltzmann
amplitudes
inhomogeneous
stages
dirich
cros
##gra
evaluations
adiabatic
sustain
procedures
ice
besides
dwarfs
iteration
interactive
undergo
dirichlet
##ider
composite
focuses
separated
extent
enrich
relay
##tri
cum
##tered
parabolic
keep
humans
ce
photometric
gaps
deno
cores
oscillator
patch
analogue
outputs
expectation
usage
head
simply
mimo
mg
substrate
##bf
baryon
diss
incorporate
##udg
histor
##tification
##bre
##abled
currents
remarkable
cryp
front
odinger
##lab
days
manif
remov
##chain
supports
expensive
blu
generalizes
##algeb
frameworks
##air
quick
elimin
distortion
arm
perp
teach
why
start
rightarrow
rever
##raphs
##bh
argument
share
discrep
##ah
versions
unb
substantially
admits
##ended
cone
##lity
put
##uctions
obst
stim
##17
intervals
opin
nearby
##vin
lib
factorization
merger
bifurc
26
package
generators
once
begin
maxwell
primor
patient
spins
##ung
gradients
decentral
28
complementary
##rec
urban
converges
02
benefit
27
iron
vibr
periods
ranking
strip
enabled
primordial
decoder
yang
##izer
actual
perception
accessible
minimize
##pling
arguments
crow
valuable
genus
##ls
##ifications
##omorphisms
augmentation
interpolation
thermodynamics
laboratory
deduc
obj
anni
working
obtaining
interpreted
guide
nontri
news
scores
raman
private
screening
competition
##adi
fm
parametri
exponents
away
##eve
unex
addresses
derivation
##aling
height
fric
mirror
graded
adopted
##dle
##sively
##ying
arx
intelligent
supernovae
concerns
##ender
mutual
gate
majority
dimensionality
items
abundances
jointly
noncomm
cmb
intr
adding
tidal
muon
scalability
symbol
fairness
baselines
significance
solitons
##oted
coex
road
##agnetic
geometries
creation
##rate
discretization
##ga
suppression
##tite
resis
##istry
##ifying
expos
contextual
lept
35
encoun
leverages
hypers
scene
arxiv
gene
uav
foundation
randomized
nontrivial
receiver
95
##ale
annih
truth
meson
shall
prel
##oscop
aux
##forward
deviations
dissipative
disturb
outside
safe
oxy
arrang
##vision
randomly
ionization
style
gaia
gpu
machines
rout
dram
##pus
mining
violation
giving
marginal
diameter
slightly
involve
trapped
acquis
assisted
representative
##len
gluon
chern
mos
mig
carrier
visible
subc
##oor
flavor
susp
lowest
duration
industrial
lengths
select
32
clean
granular
assembly
gan
outcome
cyber
losses
win
activities
contras
soliton
##ested
stop
controlling
crosso
primarily
dots
resistance
##stry
##icing
subsequent
solver
opportunities
antenna
activation
motions
ta
empirically
nit
##ction
filters
frames
confinement
multipl
aspect
indu
prelimin
##etch
vertical
broken
communications
concern
tract
industry
chip
defect
necessarily
boost
##ita
home
##inity
prototype
mostly
##be
drive
70
illustrated
jose
##unov
hund
overhead
##iliary
radii
tackle
decou
resili
pret
aggregation
nanopar
acting
oxygen
du
dialog
zone
##bard
collaborative
dru
operational
bosons
##ented
optics
##ie
utilized
scanning
joseph
tissue
##ery
##tures
pulsar
heis
former
##entioned
fp
##60
completion
date
##rot
ideals
captures
##14
expert
adjoint
addressing
strictly
hubbard
subgroups
magneto
heisenberg
auxiliary
defining
subsets
epoch
ric
companion
##po
preliminary
effic
##utive
##cing
preferences
trends
gy
##ush
##ked
implementations
tunable
orb
creating
skill
##umann
angles
optimality
percolation
crypt
developments
fluids
pand
attain
greatly
characterizing
hubble
loops
cf
##day
examined
josephson
explosion
analyse
sums
card
atmosphere
##sch
attempt
status
suffer
equipped
##hol
skew
initially
infrastructure
deb
esc
crossover
topics
blockchain
##aly
converge
prepar
coron
ds
classifiers
noncommutative
association
nonlocal
objectives
##itter
acquisition
vortices
##crib
efficacy
300
simplified
neurons
interact
##zing
universality
message
intra
neumann
producing
##umps
landscape
received
written
##eb
ensuring
spanning
##static
mitigate
semiconductor
##chitz
hadronic
nanos
adapted
##ean
aligned
mot
##ipschitz
neighborhood
cer
quasipar
decentralized
##wh
2020
vic
appearance
adjac
##apunov
subsequently
pet
span
counterparts
regul
amb
spheres
##elling
##avier
downstream
verified
learns
econom
automata
considers
coh
##ient
susceptibility
lyapunov
plate
induce
deformations
lifetime
maximize
applies
##une
behind
membrane
##ploys
substit
##encod
##irect
throughout
heterogeneity
fermionic
bases
ah
fru
unpr
newly
##ca
arbitr
strengths
decreasing
ergodic
proving
db
exotic
decades
minor
powers
majorana
##omplet
ech
reversal
his
entities
##ivers
climate
percent
incomp
holographic
compens
emergent
##iction
##raft
##anes
onset
comparisons
het
##arm
energe
500
causes
fem
accum
incorporates
dependencies
sne
requirement
attributes
lipschitz
addressed
##itch
autoencod
ensembles
morphology
crossing
affects
chaos
person
interstellar
diam
complicated
combinations
##ius
specified
bipar
symbolic
streaming
##pled
batter
rg
scan
bid
column
ultras
shed
cumul
01
ling
damping
considerable
multiplicity
averaged
##tified
isomorphic
##foli
integers
supporting
shaped
hundred
employs
dnn
##igible
choices
hat
lensing
##dm
##exts
pyth
trend
item
govern
library
2n
surrounding
imper
tomography
progen
feder
iv
##structure
quarks
arbitrarily
##30
lem
mp
answering
explanations
##axial
geometrical
interior
##ifies
express
normalized
visualization
multiplicative
ultrac
reasonable
historical
##rained
sob
##parametric
difficulty
05
belief
isomorphism
notably
contained
instabilities
##pass
thor
plasm
risks
unbound
##layer
hypothes
backward
moderate
balanced
favor
bridge
progenit
monotonic
versus
impurity
clearly
added
##urrent
indices
consideration
45
chat
capturing
##romet
offering
boole
##mer
##ipro
jacobi
contexts
interpretable
briefly
##ened
injection
junction
##roid
geodesic
pu
degrad
tet
projected
##80
##ompan
observing
opposite
inferred
##stm
milky
##bling
comes
lam
occurrence
accompan
alternating
ultim
grad
gains
notions
pairwise
##hedral
proximity
experts
divis
##iving
ambi
viscous
quantitatively
eeg
mergers
mild
observatory
peaks
boolean
wavef
emerged
million
##seen
remaining
##coming
alone
parameterized
nil
quantity
slope
coal
independence
denoising
nonparametric
triangular
##weight
fuzz
leak
constructions
promin
surprisingly
plus
ten
##ino
relate
corpus
prosp
ign
utilizes
admit
remote
dramatic
cart
multis
players
lig
enhances
jus
quantized
graphical
routing
##sf
achievable
filling
batch
##nas
negligible
biases
envelope
uncover
irradi
compressed
ti
movement
##erson
realize
chemistry
stock
crystalline
##ners
nonlinearity
hear
organization
render
treated
##unch
##imal
induces
99
impacts
oscillators
lesssim
permutation
bipartite
fav
toric
friction
cc
por
fault
##ewise
proposal
voice
cach
segment
inertial
old
les
sou
branching
qualitatively
centers
functionals
wavelengths
investigating
ingr
2019
captured
tumor
##19
videos
gases
snr
partitions
proteins
passive
cong
margin
until
##icious
ingredi
incomplet
contrac
refinement
linked
reserv
##ugg
hypersurf
##irable
tag
expanding
##going
hex
33
recommendations
suppressed
##ryp
contin
posit
extrap
integrate
##iom
indirect
kpc
volatility
##eases
entity
sg
conductance
banach
##15
manual
exposure
statistically
sampled
##phi
squared
kerr
artif
remarkably
mixtures
##lusive
commerc
neverth
persistent
nevertheless
##rated
##erman
probing
determines
counterpart
closure
cn
resolve
globally
tailored
conclusions
antic
continuously
##ouse
##owski
##icular
spreading
pool
imbal
assist
excep
collider
regularized
##abi
bursts
gt
modifications
##ula
metam
##bm
##olev
degradation
inelastic
server
##tionally
ecc
circle
simplicial
deployed
##hat
recursive
hetero
dp
2018
neb
fash
tilde
##word
meaningful
extin
##ronic
acad
covers
comparative
investigates
photometry
##tillation
physically
##edy
unseen
seed
rs
fashion
properly
gc
##itions
sobolev
##onsist
layered
fractal
scin
##endicular
opens
markets
epidemic
devel
competing
satur
goals
perpendicular
redund
nematic
intensive
saturation
organic
budg
29
wat
functor
spiral
##ogram
walks
wil
clari
75
supersymmetric
##ats
##o3
hi
bodies
initio
developer
hydrodynamics
bill
##umer
extensively
coexist
player
jump
pred
ls
tax
##imination
asr
##bod
availability
biased
selective
##ifts
student
reflect
##fe
schwar
descriptions
##otes
instit
discontinuous
suppress
##down
##ativity
monotone
##oir
nlp
##uning
##nection
offline
##equilibrium
averaging
cascade
imply
##ounts
restor
survival
##13
propagating
workflow
portfoli
tends
asymptotics
##eth
differentiable
ambient
pn
priors
##bilities
drug
pricing
agree
helium
quotient
lies
##enet
viewed
poinc
dedic
calculating
##cl
otherwise
mediated
informed
highlights
solvable
cyl
suff
sentim
displacement
countries
qubits
quickly
axion
condensation
frequently
zer
coordination
python
extracting
conflic
maximization
##osphere
determinant
ubi
##potent
##dor
bottom
##40
cylind
##endi
anomalies
##joint
preference
concrete
templ
diffuse
haus
apparent
##me
emerge
##las
diagnostic
straightforward
fluxes
skyrm
emotion
raw
##atz
##pher
integrates
bath
table
polarit
##cribed
##zero
hyperg
attach
inconsist
prevent
unus
implementing
transforms
eccentric
##atest
blue
suited
brightness
oct
toler
##itous
contam
alle
##osting
extremal
performances
reality
governed
junctions
##elves
ultracold
sitter
attributed
establishing
##ilibria
ubiqu
##eled
enter
exciton
amounts
versati
gib
reconstructed
surrog
documents
pandemic
come
newtonian
##land
helps
##imensional
##encing
europ
equilibria
##aterial
worst
cooperation
##16
protection
federated
az
approximated
grain
thought
##ster
charges
infinitely
incident
ho
colour
perturbed
##box
bosonic
recommender
increment
thous
##eced
metast
unbounded
stiff
dedicated
cv
modalities
##ubes
##arge
pec
discrepancy
curved
jo
##yd
multid
course
kinds
repeated
ricci
updates
fluores
adoption
priori
gauss
personalized
kepler
triple
##plets
exclud
flag
triplet
handling
##ancing
supply
##ulating
atten
reservoir
##entic
nonequilibrium
adsor
yielding
jam
##itable
superp
##orrel
axial
simpler
##schild
eject
adic
telescopes
compounds
happ
remn
accounts
mt
annihilation
tm
ambigu
##ufact
logical
texts
fis
phenomenological
anne
importantly
axiom
classic
controls
##emical
pan
enumer
monolayer
quantification
explores
projections
##dorff
##inite
haw
adopt
##riting
rigidity
##lor
##ires
nanow
median
##izability
diffusive
optically
##ey
03
limitation
evolve
bilayer
similarly
trapping
##aint
bern
diamond
navier
bottlen
##orting
##ynchron
2017
cnns
manufact
##ered
education
dich
simulating
hausdorff
relying
regret
kle
promise
arc
answers
thorough
extinction
twist
kn
##ois
avoiding
actu
grows
##eper
##rest
recording
laplace
lstm
decon
highlighting
insulators
flight
unpreced
positron
expansions
centered
conceptual
seem
dg
except
bifurcation
degeneracy
##iable
##tile
##atom
investigations
##lassical
identities
return
##elled
uns
observer
diseases
##vian
directional
##entang
interpretability
opinion
unprecedented
##oul
intercon
##oscopic
36
##ki
plastic
correctly
que
##olet
oxide
forest
restriction
ldots
34
gh
frustr
##isp
nonzero
daily
bring
##process
dd
piecewise
vibrational
transit
controllers
today
modality
continuity
letter
reaching
coc
condensates
prominent
mesons
##enius
master
ka
liquids
mott
packet
##ert
standing
grains
inac
shocks
sentence
##rates
##ondi
commercial
seems
separable
aper
massless
waveguide
oh
eight
guidance
percept
operate
##ini
trop
ru
##tition
reform
accounting
bs
acts
singlet
lith
##alactic
annotated
incomplete
pde
generalizing
volumes
assignment
varphi
quadrup
classified
nanoparticles
poses
ranges
##agonal
dependency
entangled
von
sed
valence
prices
exceptional
robotics
crowd
subjects
##asc
2015
business
targeted
##care
fits
preserve
route
solely
##sky
choose
actually
gpt
carefully
sentiment
budget
smallest
brane
37
solvers
redshifts
##itory
stabilization
vast
kinematics
satisfied
row
renew
considerations
##osystem
allevi
disentang
transportation
encryp
modulated
era
comment
##ositional
reports
pulsars
polyg
boot
migration
convection
thanks
english
revealing
electrostatic
referred
subsystem
react
multiplex
manifest
2016
recorded
selecting
encour
##18
ped
##biased
perspectives
gro
healthcare
demonstration
international
grids
plau
remo
##regular
ont
bert
messages
fragmentation
cdm
assessing
recovered
restrictions
accelerator
prol
tractable
##dynamics
topologically
superm
semic
shallow
##tment
encoded
dft
recomb
burst
transpar
ubiquitous
##izers
interm
recipro
diffe
mink
halos
bubble
battery
gram
ts
coming
ferro
eigenf
division
checking
placed
mathsf
##stand
td
spectrog
walls
hours
ultravi
##sis
mini
04
packing
runtime
ultraviolet
don
fewer
twitter
##rupt
##obs
nb
##etting
schwarz
ey
ln
##echanical
meet
infl
globular
hz
##osecond
intuitive
ine
generalizations
roughly
spatio
searching
mhz
yr
##adily
contrary
decade
multiplication
2021
repulsive
protost
desirable
ahler
nodal
##ano
emerges
automorphism
resistivity
weather
proceed
##bar
ut
bootst
tal
categorical
##istration
semigroup
fourth
39
##ads
protected
databases
indicators
hod
cardi
artifacts
developers
jup
weaker
eventually
##elet
respective
38
aimed
##irection
thems
consuming
deformed
##cur
##asser
serves
reverse
monop
malicious
broader
forcing
segments
##iling
nash
instruments
flav
themselves
##avities
gibbs
oc
iterations
##esp
rele
##arc
nanoscale
##oelectric
resem
seven
preval
bootstrap
firstly
##tible
characters
interestingly
multip
198
##inder
norms
trading
emphasis
ip
##ydro
multiscale
##acial
vicinity
chap
##cales
imposed
advance
param
contrastive
f1
55
##ils
succes
soph
##akes
becoming
dy
tot
finger
fabrication
surrogate
merging
gd
specification
cycl
beamform
exploits
sight
galois
condensed
opt
##ynamical
recall
things
imped
bic
reconf
classifying
clock
superl
quenched
conservative
##fl
frob
42
##ool
attribute
gras
smoothness
centrality
ben
##ury
quasars
covariant
thom
semimet
projects
##gm
alter
##quet
considerably
passing
##yclic
ongoing
degra
85
cauch
adequ
minkowski
##eres
##ych
##orth
exhibiting
interested
readout
neighbors
transcri
synt
retain
tensors
##min
##ille
cry
frobenius
separately
sized
##lear
##ucid
updated
##uistic
harmon
month
ultraf
##oreg
cus
##ellation
2012
cauchy
conduction
greedy
bc
metals
44
##sl
subl
1000
opportunity
simulator
formulations
##70
unbiased
relational
asynchron
chand
foot
##ivari
varies
sb
##uk
##olding
mills
bb
blow
unders
thz
compac
occurring
oscillatory
mf
##essel
poli
silic
prescribed
maximizing
fractions
metamaterial
mhd
micron
fisher
filament
guaranteed
##urs
normalization
subspaces
nanot
goes
anderson
annotations
transparency
options
comprom
persistence
##use
simeq
runs
minimax
##acles
nested
macro
truncated
bim
mw
65
exoplanet
rect
peculi
pump
atlas
bio
plasmonic
fails
termin
probes
cham
demands
difficulties
energetic
synch
fd
penet
##ostic
2010
conjectured
chir
harves
traces
pdes
antennas
fuzzy
neuro
##ionization
damage
annotation
##unately
connect
sophistic
elucid
reached
##aff
heart
rb
deduce
death
strings
nom
hash
sds
removal
43
faces
workload
insulating
identifies
fock
powered
##ison
spot
textual
ferromagn
expectations
##hn
viable
resonator
##print
acquired
2011
ensures
forecast
##neg
multif
matches
returns
astronomy
irregular
##sed
logistic
dt
##ogenic
dialogue
technological
droplet
pm0
##ann
primitive
torque
wasser
stein
entries
##vs
evapor
portfolio
bacter
counts
wasserstein
##oherence
formulae
blind
lightweight
accelerate
##hr
tropical
pron
##ws
unlab
conducting
multidimensional
hypotheses
escape
utilization
nd
##ymmetry
penalty
##ival
disjoint
huge
severe
reconnection
##irectional
##hal
##11
definitions
lp
um
##adow
##ospheric
##manifold
2014
##ancies
overline
shrin
push
brown
##ayers
approximating
recombination
innovative
##ovian
amen
delays
centre
hopping
adjacent
programm
horizontal
##rotron
drawn
overlapping
mathematics
klein
prov
modulus
exoplanets
##fications
advancements
lid
timescale
timescales
ham
mism
lemma
broadband
##isim
##avily
yau
heavily
tangent
hamiltonians
radar
scattered
##ommod
exploited
##ompass
believe
##imetric
wilson
##hs
unexp
textbf
attempts
porous
grass
aa
incompressible
hab
##nected
##scr
vulnerabilities
##break
##dis
##inting
##acies
summary
2013
accelerating
autoreg
protons
possibilities
older
rectang
hyd
refined
##ometers
labeling
kal
discs
infection
peer
showc
encompass
shor
metas
amorph
markovian
unusual
compl
intense
precondi
sle
smoothing
##ez
##ermal
emitted
fading
##sivity
regulation
practices
##asive
##odular
accommod
coloring
governing
jour
latest
marked
unexpected
vacc
##board
aid
poorly
synchrotron
concurrent
compton
union
48
##la
galer
##pings
emissions
encode
##ek
galerkin
solids
zh
ther
biology
conditioned
triangle
##ropies
popularity
##inant
##asso
nonneg
plasmon
specialized
linguistic
superc
registration
##ele
supervision
oce
reconfigur
bits
##ka
child
wavelet
delivery
##rative
##emporal
##umping
behavioral
corrected
transparent
reviews
transformed
records
##ysi
streams
inflationary
filaments
gained
warm
vital
scaled
tune
alloc
ryd
##rometer
perce
alternatives
astronomical
87
asynchronous
##edit
nilpotent
prox
quar
mathscr
national
unfort
city
satellites
56
authentic
ecosystem
##algebra
foli
diction
protoplan
passage
##ivariate
##olved
readily
matched
mismatch
analogy
##atern
slowly
rydberg
constitu
contraction
connecting
arcs
terminal
statistic
deriving
relating
noncon
bp
lot
topologies
attracted
motor
06
##iability
mask
reaches
charging
64
fluorescence
sad
##igner
quasar
coexistence
stem
aiming
##ina
metasurf
fib
96
shortest
amorphous
150
triggered
resilience
precondition
did
neither
reversible
98
gm
quantifying
poincar
quasiparticle
hc
denote
sophisticated
similarities
conjectures
autoencoder
kg
deeper
originally
simplest
polytopes
lange
imaginary
##22
##plex
blood
modify
facilitates
anticip
spiking
##ighter
fes
##ups
unfortunately
planes
conserved
cuprates
distant
explains
peri
dipolar
cpu
completeness
released
moti
roles
nanoc
broadc
gtrs
pathways
lm
fibers
##orov
##ounced
regardless
knots
nov
widesp
widespread
scans
neighbour
uniquely
sheet
gtrsim
##ses
sometimes
delayed
##awa
kinetics
arrival
shadow
myr
rew
langevin
amplification
##omer
ci
##actions
balancing
incorporated
luminous
interpol
millimeter
##osis
evolved
coales
h2
gender
kond
functionality
spatiot
76
suspension
grown
ultrafast
##ovsk
2022
##ectral
born
synthesized
tip
sdss
##uck
outline
wigner
##urities
dimer
nucleation
##estim
##osyn
ultimately
deposition
inser
accompanied
sea
valley
facility
##rim
##onomy
generalised
##structured
tradeoff
micros
instantaneous
azim
supersymmetry
living
semigroups
##door
400
quatern
calibrated
reconstruc
elasticity
tay
impos
hoc
develops
sque
defense
echo
azimuth
bell
token
views
resolutions
shorter
kondo
##orphic
##harmonic
articles
hyperparamet
decoherence
##etism
deuter
oracle
semiclassical
plasmas
xy
inject
failures
sheaves
revisit
textrm
##ospin
eigenst
aggregate
cavities
tok
shifted
tracing
drastic
2009
anatom
methodologies
definite
opening
fire
plant
##eller
roots
hundreds
zeros
plausible
establishes
droplets
presentation
##hertz
contributes
ko
manually
strange
conjugate
##name
##ventional
hur
collect
mappings
##ompl
dispersive
##rely
##rogen
##imir
##umines
obstacle
##eak
##tl
momenta
entirely
astrophysics
prospects
monitor
faint
interferometer
aerial
european
concentrations
preserves
commut
rangle
cox
psych
bottleneck
##tify
dex
upgra
##active
intervention
hope
voc
endow
academic
argu
ultrasound
spacetimes
ansatz
spatiotemporal
polymers
progenitor
clarify
##haus
emitting
taylor
remove
metastable
hem
keyword
##ously
optimum
##while
superiority
violating
unconventional
doppler
##eren
##ama
skills
31
intrigu
specifications
dramatically
casimir
astromet
whenever
ionic
reasons
fs
mitigation
vapor
unity
##ager
thousands
som
replaced
equality
optimisation
motivation
##omplish
##leigh
resonators
##ultural
obstacles
german
autoregressive
accomplish
##osities
##oting
interfacial
automorphisms
puzz
rayleigh
thresholds
nonnegative
nas
option
electronics
nitrogen
twin
vulnerability
secondly
decaying
squee
solves
coroll
concerned
lasso
##wa
inhib
magnetism
##isc
criticality
supermassive
agnostic
practition
lasers
glasses
hodge
cylindrical
intriguing
coincide
illust
##paign
ocean
ferroelectric
47
mentioned
operatorname
carriers
reactive
times10
friend
ran
##zen
electricity
vanishes
os
incl
protoplanetary
controllable
dens
##fold
preferred
vulnerable
ze
2008
dealing
colloidal
coincides
eos
board
skin
##qa
dnns
##o2
influenced
campaign
enfor
##edia
unlabeled
08
dose
hr
##ensur
beamforming
##plays
closer
lying
barriers
folding
interventions
slip
lf
versatile
calor
membership
lad
##uation
supple
lepton
ages
hart
##eto
partitioning
##ampling
strugg
ecl
simplicity
flip
lip
07
grom
colon
che
purposes
multilayer
##bing
##gpt
##ops
predom
covariates
influences
##aring
parton
university
##ipl
##gers
correctness
decompositions
malware
society
phonons
feat
tit
wi
##raf
annealing
obstr
df
congru
alma
cumulative
schur
##aul
centralized
speeds
incremental
faith
totally
grb
detections
formally
recurrence
pil
##using
dest
stopping
##aving
##alan
analytics
##skii
kol
informative
finds
piv
##cm
63
##apy
drag
session
functors
cutoff
5g
discipl
trial
reflected
constraining
disp
eye
recep
experiences
gather
calabi
##restrial
rgb
rr
preven
##onym
rendering
choosing
##algebras
##oks
transformers
political
moves
rating
explaining
spike
aer
##look
##pty
meanwhile
subgraph
sided
compositional
surpass
##ques
parent
varied
keeping
linearized
##zy
perovsk
bloch
backgrounds
colors
swim
insu
tube
##eras
##ysical
magnetized
doubly
geodesics
outflows
displays
going
offs
enriched
faithful
randomness
##burst
inj
analysed
confirms
##ecraft
covered
bubbles
tess
prompts
beneficial
wider
peculiar
superposition
bon
schro
modulo
tu
##etric
successive
webs
suite
scope
##urance
intended
distillation
realizations
lateral
played
##itaev
pf
sud
##aptic
borel
admis
##lines
texture
##com
owing
##gp
twe
##plus
##yi
46
strategic
pruning
mcmc
charm
optimally
disapp
gromov
defines
orbitals
saving
cb
symbols
##normal
##link
antiferromagn
ejecta
positivity
##zations
submanifold
gross
##roids
hardness
##ogenous
south
presenting
investment
susceptible
conversational
impurities
scintill
##illary
wild
devoted
waals
driver
detectable
convexity
##raining
disturbances
##ohydro
scenes
hexagonal
09
##space
permit
explainable
neuron
biomed
eigenfunctions
libr
##osynth
seism
shaping
continue
fake
##used
##ren
##erts
measurable
journ
practitioners
##lands
morse
roll
##agger
blaz
compil
removing
bcs
manufacturing
modelled
##thern
nir
reproduced
drawing
orbifold
zn
virus
##tia
inductive
compli
##ouv
irradiation
corpor
atmospheres
chandra
reproduces
##uminescence
accelerators
epidem
##ecke
68
format
pick
cardin
amenable
aided
bm
reyn
coronal
school
house
biomedical
##ticity
lithium
infected
automation
##standing
sketch
prev
rnn
sz
quadrupole
##range
substrates
97
innovation
pronounced
spacecraft
regulatory
asset
##ishing
pole
concave
quantified
exceeds
67
tin
processed
flare
impul
##ambigu
##onomic
leakage
##geometric
flares
spacing
doing
isotop
##plored
2000
stored
##points
restoration
cad
fig
stations
reynolds
waveform
geometrically
##rone
magnitudes
langle
fulf
helical
polytope
food
##venue
2m
witten
book
insufficient
epit
reliably
subseteq
52
##eterm
serious
compatibility
intermitt
cms
iteratively
permutations
assessed
breaks
quantif
companions
subjective
##liers
##usive
characterizations
regarded
divided
##imp
##romatic
pca
stiffness
hinder
tera
##empl
separating
heuristics
steep
gyr
indicator
ghost
##ault
intric
##book
assigned
##rability
heli
##titude
organized
##rect
centric
saddle
tempor
lived
##ilinear
pain
live
hawking
cities
monomial
claims
thesis
circumstellar
bending
sentences
hosts
proves
pursu
##oi
##iar
notes
transmitted
##lingual
##grid
branches
comprising
agrees
discusses
rod
winds
distributional
monod
birth
substitution
##dom
magnetohydro
transmitter
alf
##uer
transist
schwarzschild
electrodynamics
##processing
inherently
cheren
##rian
ligo
cherenkov
##imer
gpus
install
##antine
quiver
qed
swarm
adopting
placement
##tes
compressible
predominant
threats
progression
respond
dictionary
tt
incidence
##33
say
electrow
analogues
stere
couple
csi
##pting
unclear
imbalance
##wareness
4d
hes
lung
doub
##illing
outliers
examining
revolution
##oelastic
##ride
scientists
hamilton
middle
kag
relaxed
58
otimes
fitted
##cu
##istrib
alice
gin
hecke
nc
reviewed
49
launch
rid
liouv
waterm
discrimination
patches
template
##gue
lex
wd
mutation
gates
sectors
physi
paradox
countable
##umination
ask
repeti
ingredient
##ociation
neurom
repulsion
exposed
bilinear
contacts
equally
##spec
exchang
eg
rigorously
##ford
attraction
illumination
kalman
##worth
appar
multilingual
offset
evolves
rt
sliding
promote
unve
traditionally
propto
mapped
packets
2023
##att
predictor
neighboring
subtle
chatgpt
differs
appearing
197
pixels
54
preserved
msun
sciences
decoupling
120
retin
colored
watermark
traveling
##map
corner
freely
##tis
##ront
mesoscopic
irre
creates
microl
fitness
chapter
##orem
costly
gar
hardy
receive
movements
ff
hyperf
hypersurfaces
cardinality
##adic
##ordan
constitute
##ko
uc
sett
##atomic
believ
femt
pal
apart
inertia
noether
genes
##orted
semisim
filled
awareness
##mog
helicity
cameras
striking
discriminative
##optim
capacit
contamination
plans
paired
secret
distortions
hone
pitch
exempl
azimuthal
##align
##ulum
electroweak
##enstein
sugges
usefulness
##oped
depos
profession
reproducing
photoem
cft
resolving
cardiac
tac
breakdown
statement
##burg
obsc
viewpoint
phyl
adapting
##omechanical
wealth
undersc
lidar
sand
distinguished
fabricated
seam
spir
ethical
57
lr
voting
pretrained
##ards
controllability
naive
##asion
debr
reductions
jacobian
vr
baryons
terrestrial
tokens
kolmog
minima
adsorption
linking
morphological
conjunction
##ya
pv
##enz
unim
reco
missions
##23
facilities
legal
bank
satisfaction
meshes
attractor
upl
repair
extrag
repos
autoc
haz
acyclic
locality
aforem
incorrect
arrangement
debris
associative
benchmarking
spherically
photoemission
easier
aforementioned
overd
affecting
##edge
bd
waveguides
writing
##critical
bog
abstraction
braid
kil
anim
uh
obli
instrum
hadrons
##uly
cones
##phone
luminosities
alleviate
kolmogorov
write
guidelines
tf
poll
spectrometer
photod
crack
pointed
periodically
compactness
impossible
emotional
pac
emitters
53
rhic
combinatorics
summarize
party
demonstrations
standards
phosph
inclusive
realizing
termed
gem
nv
quaternion
rv
##otion
implying
widths
tetra
seek
behave
boosting
broadcast
queue
##etal
goog
94
descript
utter
##osable
encryption
rock
2007
rc
melting
terahertz
corollary
##ults
82
monoidal
##gestion
think
forecasts
expressive
liouville
differentiation
believed
speedup
reflecting
interferometry
##linder
86
jumps
enj
cylinder
intersections
##inter
elliptical
tails
oscillating
outperforming
instrumental
ef
compressive
##ochemical
hst
leaves
##exam
##electron
capital
avoidance
lob
##etching
##iring
carrying
renewable
foreg
impedance
rna
scoring
##hes
quantile
encountered
remnant
continuation
job
facilitating
prone
loading
deals
indoor
transduc
convergent
tracks
removed
accordingly
perceptual
spur
looking
isospin
##ulsion
manage
truncation
neutrons
exceeding
aperture
77
wire
unstructured
##ami
nond
seas
medic
constructive
bonds
cache
88
92
##feld
frequent
summarization
evaporation
extragalactic
kac
isolation
contracts
destr
penetration
facts
stabilized
replace
admissible
##shitz
##kh
evid
gans
thread
rom
adver
##alc
segreg
iterated
dile
##isations
##quark
##08
tori
subdi
fluctuating
concentrated
##rolog
teacher
binomial
induction
##ney
consec
reconstructing
ner
##oto
payoff
destin
semisimple
probed
conflict
##tration
anonym
iso
##terior
harm
heterostructures
edi
fuel
proximal
synerg
##ruption
bethe
integrability
##ensing
84
broadening
##oresistance
brings
educational
seamless
computers
north
##pi
stretch
refine
weighting
##ordance
assumes
mort
struggle
pivot
ago
adaptively
causality
quenching
##iteness
harvesting
phylogen
kr
##anic
lastly
monotonicity
lu
dys
recovering
inconsistent
bang
hm
tut
##apes
##field
chines
interpretations
synchronous
pathway
semiconductors
proxy
infinites
builds
posedness
nonconvex
adversary
ontology
62
computes
chinese
jones
codimension
algebraically
grating
##hedra
foreground
tl
##where
worksh
exclusion
slice
emphasize
compet
compositions
66
ws
mimic
dilute
quotients
boun
cube
intract
google
##oherent
pumping
deconf
eigenstates
93
native
##iodic
attached
89
multipliers
extrapolation
congestion
electrodes
lagrange
rd
bandit
lym
marting
lifshitz
citation
##pers
ends
compress
trials
dominate
gord
##finite
nebula
kir
ionized
suboptim
membranes
##anov
notable
rewards
##pless
cusp
precession
perfectly
chamber
commit
refractive
fronti
##idable
cataly
parametrization
cot
##ont
cdw
pat
##reting
intensities
inferring
teams
fried
##stone
reionization
clique
prioriti
cyclot
proposing
rib
absent
engagement
jordan
lett
##ensurate
minimizes
astero
berg
pareto
vorticity
satisfact
kh
tow
mol
##ohn
prepared
drastically
##othermal
nmr
intricate
convective
pg
distinc
proportion
fracture
tables
##exp
empty
instructions
##tw
berry
##irected
##ava
embod
elabor
##odi
catalogue
possesses
corona
bad
nar
lacking
gordon
harmonics
sudden
generically
gapped
##matic
forb
wear
try
positioning
wol
anch
minutes
fragments
grassman
convenient
magnetoresistance
contract
accumulation
cif
fly
cast
relates
irrever
sir
genome
smbh
necessit
chromatic
41
kl
nine
decide
mental
corru
examines
##esian
opto
characterizes
propagate
intent
solvent
periodicity
##itively
##bone
preparation
reciprocal
aging
dominates
eccentricity
prem
name
disturbance
##onov
phenomenology
morphisms
##osh
mk
##right
appropriately
breast
dead
##cript
consecutive
transaction
bernoul
causing
beginning
110
orientations
perceived
bernoulli
##entally
##empor
signed
##ams
leader
stringent
orbiting
arrangements
rar
inher
metad
replacing
72
nh
immer
aud
avalan
jw
lc
##ody
overlook
uavs
redundant
qa
##prin
111
companies
pilot
##icities
##abet
computable
83
healthy
multiplier
neuromorphic
2k
##uff
##bes
##idity
comprises
gradually
bip
surger
##enger
bulge
accreting
file
sustainable
xx
disruption
ambiguity
avoids
##rophic
frustrated
misalign
libraries
ism
upcoming
drives
grand
pinning
##argeting
treatments
electroly
hessian
spontaneously
uk
foundations
mathematically
##zburg
##urr
exhibited
hf
##abla
epis
##ycle
nets
neq
brack
##ologists
quadrature
##ives
seconds
obvious
entropic
visibility
jupiter
rectangular
erd
critically
##ateral
belongs
##wave
swift
inaccur
ginzburg
predictors
balls
authentication
deple
entail
brill
commuting
appe
mainten
recordings
fibr
slower
teaching
avalanch
59
polariton
stacking
groth
maintenance
rub
##ept
originating
transients
mv
disag
receivers
radical
imperfect
cryogenic
approaching
hartree
78
rain
harness
sot
##amm
changed
proposals
store
initialization
cancellation
floquet
kur
pseudog
##ml
vox
shield
##romy
mitigating
distinguishing
transiting
somew
fpga
hypersurface
exterior
continued
nabla
advancing
##fers
resist
contrad
arms
##ymbol
forced
bounding
homogen
invertible
said
neuros
favorable
fano
fundamentally
acceptance
interpreting
drawback
drivers
lifting
you
incoherent
phenotyp
reading
##rally
operates
##iants
neuronal
##gravity
##osynthesis
##omy
pointwise
wik
income
backbone
nanostructures
hypergraph
simons
rp
hydrodynamical
metamaterials
cay
constitutes
integrity
snap
fro
##ris
prescri
##tilde
exciting
chirality
tts
##endieck
##plane
toy
eliminate
ingredients
cifar
denotes
pressures
grothendieck
undirected
reactor
##ensitive
focal
publications
rapidity
horizons
endowed
##lov
perman
pulsed
acquire
v2
parametrized
pedest
jwst
probably
unless
facial
auc
millions
legend
hyperfine
lect
wit
backdoor
immers
##vis
##ura
hosp
##olecular
pros
statements
disl
practically
sgd
gps
coded
delocal
##eu
widetilde
instruction
cohen
defl
worm
resulted
gpa
prohib
feyn
sfr
mars
default
helm
photonics
plateau
bolds
thermalization
advection
xmm
isotopes
cartesian
kp
imitation
assets
signs
catast
stratified
##orrelation
##ascular
seismic
2006
confirming
##attice
raised
gapless
##ani
transvers
cybers
hb
io
unexplored
##ecks
member
electrode
cuprate
mind
reflects
counterfact
attenuation
spring
##onically
phil
decl
locus
signaling
none
associate
ot
equivalently
##information
bn
resnet
dynamo
devise
treating
##hm
held
lost
copy
skyrmion
monopole
elev
##pin
##wide
undergoes
##bons
redundancy
paramagnetic
contempor
artin
74
xen
##ulf
maximally
hypergeometric
updating
boldsymbol
##oscal
toroidal
grbs
china
impose
counterexam
preprocessing
nf
virial
pipelines
rul
transferred
##epl
ib
sid
customer
##alcogen
extrac
hyster
translational
immersed
adequate
months
afm
disch
floating
cultural
intuition
preservation
fok
outbreak
inducing
##efined
constructs
resilient
agns
parameterization
depletion
jan
starts
##atories
nominal
fif
##antom
precod
averages
hour
lis
engines
counterfactual
kd
lac
targeting
filtration
cartan
perovskite
characterisation
client
nanowires
69
bag
##ounted
##ompact
remained
trustworth
plug
processor
collisional
gor
critic
calls
origins
nitride
feynman
nanowire
friendly
73
speakers
economy
tweets
opinions
unambigu
##spectral
quasiparticles
suffers
##dynamic
dominating
adjusted
chest
reductive
diagnostics
##inated
ablation
normality
grounded
residue
boundedness
cayley
implicitly
featuring
##lust
century
perme
engineered
belonging
##25
vibration
pooling
whe
skelet
stagger
##iciencies
##robor
inclination
##ecurity
##rystall
##rup
forg
phantom
necessity
intractable
##bled
overf
fairly
exhaus
places
regis
firm
novelty
hull
##kal
##ember
optic
organizations
suboptimal
fat
scar
guiding
synthesize
viscoelastic
thermoelectric
shrink
##wards
subjected
drl
assig
semide
contributing
vacancy
sheets
conjugacy
hysteresis
fc
immediate
broadly
##ysis
confound
expanded
want
transitive
elucidate
baryonic
accepted
transactions
credit
argued
##24
2005
mb
isometric
coxeter
corrobor
helpful
predominantly
witness
schw
augment
pseudogap
sic
##ationally
cutting
##orial
saturated
gs
##itzer
001
encounter
conditioning
intrinsically
cul
##water
fra
##bor
##tise
children
somewhat
##31
##perturb
mit
##ogeneities
propagator
workshop
##rought
manipulate
femtosecond
honeyc
fb
tissues
##pe
burden
spinning
##acity
experienced
##beck
loads
chance
multit
imposing
magell
workers
crossed
alex
regional
swe
mutually
fulfill
evy
branes
revisited
cern
cov
metadata
absorbing
##dy
invasive
inefficient
infinitesimal
axisymmetric
##observ
sac
##ifer
setups
eigenvectors
permits
replica
rear
convol
rooted
opposed
gnn
adjustment
coordinated
crust
amplif
profit
semidefinite
twice
##med
intrac
##bic
magnon
compensation
thermally
servers
##hedron
honeycomb
precurs
nonlinearities
attacker
fragment
excitons
files
recognized
600
sar
##hl
mete
magnetically
drops
##onality
minimally
vc
vit
isol
svm
prevalent
##sey
##atit
hair
##holtz
chord
serving
tailed
compares
capillary
interferometric
ladder
fokker
valuation
sequentially
dw
indicated
phylogenetic
##acting
sleep
subgraphs
rounds
vec
correcting
clients
accommodate
page
plot
recursion
taxonomy
subsystems
recognize
happens
gg
photoc
breath
##100
##ellular
progenitors
homological
dar
##itted
asymmetries
spurious
nak
primal
corpora
ellipso
genu
supergravity
##prop
decomposed
government
##drop
pdf
rescal
cob
slam
aggregates
stripe
unobserv
obtains
lesion
punc
##kit
abilities
##imetry
bidirectional
interlayer
agb
individually
attractors
enrichment
spint
##rafted
activated
xenon
actively
interests
suitably
portion
discretized
79
lb
##gap
##imed
rhe
showcase
aggregated
multiplexing
##level
api
magic
nut
linearity
reconfigurable
##oon
traps
jamming
windows
generality
icec
ballistic
customers
epochs
synaptic
argon
##ouin
modifying
galile
dic
modest
magnets
coating
finance
##afe
parallelism
subclass
convert
offload
communicate
collecting
herein
advancement
##yth
negatively
publication
occupation
helmholtz
analysing
transforming
stacked
##2o
secrec
anc
ode
unm
secrecy
fost
automaton
rotations
inspection
lifetimes
pore
##istribution
bax
##fall
elimination
elusive
##oud
logics
participation
inflaton
kagome
yb
brillouin
poles
homomorphism
##integ
damped
susy
outl
complexities
talk
comments
epist
differently
surgery
abrupt
##uclear
positively
denoted
injected
gest
hill
lift
adhes
##tives
oplus
providers
lock
cybersecurity
##ulator
exception
expertise
earthqu
virgo
##tif
250
pivotal
satisfactory
viv
##jan
characterise
monodromy
afford
##usting
nanotubes
mortality
latit
zeeman
icecube
men
unman
cuts
physiological
contents
contour
recovers
resistive
unid
microscope
country
destination
boron
##icti
processors
consumer
provably
protect
vlas
dice
j0
unres
shells
stacks
slab
millis
tolerance
##iment
pars
collinear
baxter
bed
##cience
submodular
imagenet
ku
##ingly
##uni
##dington
locom
##ubov
exploitation
footprint
##organ
united
gase
coars
specify
cme
alumin
simplify
spinor
separations
usability
acid
##iptic
##heimer
unav
monoid
simplex
wherein
requests
bist
belt
exerc
pointing
lives
travers
dominance
socio
##state
americ
behaves
polyc
divide
flavour
ros
notice
nanor
abundant
ks
reachability
confining
ultr
encodes
rus
abnormal
axes
virtually
##oscalar
##kes
##32
parallax
disappear
millisecond
enl
layout
doubling
forbidden
ven
stre
51
ster
unifying
incenti
tb
buffer
anatomical
sgr
clumps
underd
nucleosynthesis
destro
##ulus
accessibility
famous
##ressively
multiph
locking
suppose
##ha
discovering
rarely
lun
ves
##nes
##log
staggered
kel
inev
converted
volumetric
immun
toepl
##aking
triangles
glassy
seeking
toeplitz
constituent
tubes
generalisation
percentage
hypergraphs
archival
mnist
hoch
turing
interd
leave
hind
associations
decreased
clump
masks
lut
sides
##21
scr
meeting
impressive
##rystalline
derivations
unresolved
crowdso
semimetal
##lusively
##sr
favour
##body
astrometric
paradigms
compliance
iee
collections
severely
2004
unmanned
nic
manus
eddington
polyhedral
##mid
entry
bridging
intrusion
dof
dissociation
empow
meteor
##aded
##ght
started
##enders
worldwide
coalescence
##udes
playing
deposited
brought
hh
##orders
discussions
contemporary
tab
injective
labelled
downlink
renormalized
frontier
##utter
journal
civ
welf
ant
stabilize
dub
shann
dimin
neglected
vlasov
discussing
adaptability
debate
##enses
##iger
leaving
differentially
outstanding
originate
insensitive
ieee
keywords
##cipl
discrepancies
cele
##anted
##mediately
encoders
disciplines
##amp
##ativistic
elong
gb
roughness
adjacency
predefined
##abul
remnants
incoming
##product
violations
deduced
perh
groupoid
raises
cg
wish
##ball
##ysh
vae
##etical
forth
91
isometry
ups
##ogenesis
caching
workflows
perhaps
hosting
alloy
vivo
welfare
kar
ecg
touch
robustly
leib
filtered
distinctive
betti
motivic
crucially
trem
stak
reconc
networked
vocabul
drin
decoupled
polaritons
##usc
scri
demographic
dichot
pep
cmos
maintains
copies
stresses
interconnected
programmable
poison
salt
zones
visually
metasurfaces
immediately
multilevel
clustered
ease
je
##rase
shannon
translate
spectrograph
supplement
grasp
hp
tp
##strained
140
coincidence
jud
rag
sod
##alysis
recip
haloes
emotions
lyman
autoencoders
bow
locked
retrieve
gaseous
mand
##eme
spik
flash
tour
networking
waveforms
hyperc
eliminating
institutions
transcription
schwinger
stic
unch
equator
offered
rejection
workloads
cues
spo
principled
familiar
thoroughly
martingale
gel
gets
rms
t2
zig
##omers
anisotropies
immune
stimuli
merge
##nm
excluded
protostellar
##alian
shower
stabilizing
modularity
##onia
##chemical
continues
covariate
snapsh
eras
blocking
eaves
quies
electrically
illumin
gramm
hydroph
##relev
acceptable
biomark
##wavel
hip
cris
demanding
tendency
prevalence
scintillator
cw
dispar
##ophysical
routin
scintillation
optomechanical
buck
pne
penalized
segregation
eavesdrop
monoc
planned
determinants
divisor
billion
microlensing
c2
superg
##ovol
prolifer
highlighted
enumeration
philos
magellanic
##eding
overfitting
lq
edit
irrelev
therapy
spar
gaas
##lm
geograph
adjusting
ridge
##rations
forests
frustration
compactification
gorenstein
primes
stakeh
##ialgeb
discl
alongside
hybridization
##45
##venues
vessel
##dp
observability
triples
ahead
equals
posts
cliff
sterile
gf
illustrates
##bach
tes
##ora
examination
microc
##imedean
##ham
functionalities
##electronic
lane
##oo
spitzer
imagery
ig
##oluminescence
fingerprin
qc
enz
noises
##ocking
pave
incur
landmark
cuo
locomotion
imput
fibre
schu
completed
pretraining
uncondi
##x10
##2v
histories
univariate
outage
cav
sheaf
##ulti
sex
bss
##rist
tiny
##midt
parties
##reev
posteriori
circulation
recoil
triangulated
andreev
dele
precip
tagging
##kely
##ray
obe
2024
temporally
gall
qos
join
##ht
transfers
ceph
tent
##ho
deph
##opath
dry
##pted
smoothed
mutations
##stra
behaviours
lebes
atomistic
tilting
##mic
transc
bunch
##akov
originates
microstructure
conversely
bonding
reporting
musc
cit
l1
##ander
plasticity
underestim
reconstructions
##ulates
tracer
unconstrained
admitting
http
stratification
faults
lebesgue
judg
sorting
sota
suspensions
yuk
verifying
gri
##istinguish
linewidth
pull
inn
restrict
130
wires
gcs
lind
inverted
philosoph
##rov
##ians
crossings
conformally
ultimate
schubert
##illance
appealing
ali
paves
diagonalization
strongest
nowad
##utely
exit
unn
unl
groupoids
infecti
trains
nowadays
testbed
normally
nt
sis
elast
cryptographic
##wavelength
##kt
severity
subalgebra
waven
196
tightly
##tifications
stark
misinformation
shifting
annihil
routes
axioms
obstruction
nick
unre
##eval
deconv
##utrin
slices
motivate
replication
infectious
initiated
vibrations
bessel
alt
lenses
intermittent
surveillance
ergodicity
##mers
##oms
disrup
finiteness
implied
bogoli
##uctive
indistinguish
priority
srti
maximizes
##orrelated
medicine
##uri
##ourse
rip
spots
##iders
circumst
hazard
##kle
##etz
isomet
2p
plates
editing
conical
dimensionless
pref
robin
observers
multifract
tell
##uate
alloys
prompting
piez
##omics
discontinuity
##ciplinary
dinger
explainability
dilaton
piece
irrelevant
verif
replacement
compos
bogoliubov
dn
##35
##ysics
undergoing
imbalanced
diode
6g
unable
operated
hl
wang
##city
termination
apps
epitaxial
yukawa
ger
optimizes
weakness
hyperparameters
##easible
##versi
linearization
smoothly
##44
##odynamics
pauli
unlikely
bare
freeze
appeared
closest
synchronized
800
fission
##olid
donor
semimetals
prevents
##oma
manuscript
illustrative
hed
productivity
whil
reproducibility
whilst
learner
waiting
copper
extrapol
zhang
ij
revenue
shuff
##aulay
permanent
oil
##gical
stated
##idential
macaulay
fixing
architectural
cdots
complements
floer
rash
metallicities
oxid
switched
nanoparticle
characterised
absolutely
pieces
wavefront
jap
##aved
assistance
whereby
entropies
##elike
syntax
cephe
xr
deploying
bivariate
reasonably
residuals
bridges
purity
templates
##max
outburst
telec
isotope
dephasing
##osov
enorm
showers
thomas
syntactic
relic
steering
##ograms
lt
nr
distorted
implements
hermite
tolerant
##ibly
caption
fan
hyperspectral
psr
bacterial
obey
hit
reuse
co2
reproduction
##ovolta
accounted
switches
##wood
evaluates
lus
submanifolds
physic
reflections
lisa
sink
##outs
ee
ries
tn
emb
##arded
spectrogram
epidemi
stereo
caps
leveraged
analyzes
comprehension
2s
gave
summation
lists
##inis
##aten
stro
insertion
celebr
buy
pursuit
##dc
##through
curric
tam
isothermal
outlier
estimations
firms
references
upgrade
puzzle
assembled
preventing
househ
descriptors
slot
clifford
multil
musical
dict
##ptive
##uniform
##py
interview
polarisation
gaussianity
lorentzian
managing
couples
economics
ferromagnet
etal
##icians
decompose
manipulating
neuroscience
nickel
handed
discoveries
convolutions
81
##obic
sars
planner
enhancements
gated
deformable
encourage
##cher
generalizability
progressive
rearrang
idem
calorimeter
frozen
genuine
subhal
faced
astro
hadam
lmc
quartic
auction
##car
moderately
underwater
##erce
advoc
alphabet
diffusivity
##kl
tox
encl
diffeomorphisms
hadamard
equid
selects
muons
wearable
deeply
dilemm
wells
archimedean
sectional
divergent
southern
alfv
pock
180
##27
unitarity
matroid
nucleons
schrodinger
vocabulary
##attices
sto
correlators
outperformed
vd
syst
conference
deciding
underground
unfolding
kitaev
mock
##pes
##elliptic
columns
scarc
opacity
morphism
crisis
lg
##sto
unp
leaf
refers
##hole
efficiencies
spline
retrieved
duplex
spirit
snow
tv
##kel
correlate
encaps
carries
terrain
censor
tern
blur
##icking
schedule
##oton
impulse
5d
##odic
stretching
worse
irs
exploratory
indexed
##heating
uplink
los
equipment
wiener
##comings
riesz
bis
mbox
##olis
##ressibility
shortcomings
profound
beliefs
##zer
conversation
agric
quasic
tilt
occupancy
##iard
##beration
surgical
bacteria
actor
foundational
walker
constitutive
titan
tremend
rashba
dag
infall
inferences
equilib
hyperparameter
retinal
##oxide
bat
extrins
decline
wimp
ssl
tan
##omagnetic
unification
micr
capacities
##olym
nls
prototypical
aw
dyn
gn
thresholding
##ales
admm
ecological
xe
identically
magnetohydrodynamic
wf
##ecomp
##ime
metasurface
##illa
cyt
cant
dur
sensory
lacks
burning
rising
##onent
bypass
undes
##nikov
len
##anol
optimizations
serial
mmwave
khz
facing
maintained
innovations
giants
soon
promoting
neighbourhood
exhaustive
bifurcations
irreversible
71
##atin
paid
hierarchies
avenues
##galactic
parsing
exclusive
sustained
lingual
lesions
skyrmions
reject
monoids
biologically
enforce
hochschild
night
repository
##48
story
##assively
##sen
##ask
monoch
exclusively
weil
photovolta
antis
125
va
randomization
advent
conversations
arrive
##umb
lev
##siveness
##tinger
lee
noneth
seeks
nonetheless
ht
organisms
antine
##oking
interferometers
##ao
##olders
##ato
##ref
graphics
repeat
grasping
bipolar
killing
##oken
61
##scatter
brauer
ranks
ternary
spite
textures
assessments
tate
##odules
##anger
toolkit
##pheral
maneu
masked
alternatively
cascades
##production
pit
##29
collisionless
autocorrelation
xai
viability
retaining
fifth
##qs
detects
occurred
divergences
screen
bhs
##beit
fese
1s
animal
##egener
goods
emphasizing
extrinsic
shelf
dos
##linic
celebrated
##enko
alkal
pathology
fmri
breakthrough
bbb
ale
ww
##km
contro
orientable
wavefunction
inspir
sequencing
lic
swap
justify
ratings
unveil
amongst
eclips
insurance
semantically
enterpr
figure
turning
wavenum
kos
sine
wake
resultant
teich
lte
standardized
hospital
l2
influential
asc
##ori
execute
border
albeit
metrop
lensed
recognizing
encounters
timely
smc
buildings
##ectrum
##ada
rog
##tific
bearing
ranked
moon
attained
bonnet
holistic
customized
##uty
fronts
diffeomorphism
ofdm
contag
simulators
##rystals
generations
##elli
traits
##like
salient
discriminator
quiescent
##2p
savings
ny
ionizing
unital
triangulations
falls
mj
##ashi
chatb
wast
uniformity
reinfor
multiplicities
ramsey
annual
habit
##itary
deceler
request
guess
learners
wrong
asked
concaten
2003
hpc
embodied
ejection
specificity
nanof
punct
##aph
commerce
skip
mos2
eb
##isper
##pson
certific
bernstein
blazars
circumstances
mist
cryptography
enzym
motivates
wedge
##87
photoluminescence
equivalences
discriminant
lamin
habitable
enormous
rk
invers
stay
bandgap
scarce
##orption
bugs
excitonic
##endix
ineff
shrinkage
kah
invis
adds
partly
##timate
##loor
url
viral
microgrid
morphologies
wikip
cope
lax
##work
drone
hv
anharmonic
##owns
160
partitioned
pod
analogs
sounds
congruence
phone
interdepend
kron
sensitivities
hum
progressively
pione
e2
zr
truly
respir
irr
boxes
enjoy
lv
grading
graviton
copula
catastrophic
##rite
intertw
artic
eps
extracts
ehr
stimulated
professional
##entive
##urrency
k3
kink
continual
jobs
quint
colliders
##as2
colliding
granularity
offloading
succeed
##itives
vaccination
repetition
viewing
consumers
foliations
hemis
avoided
transistors
deconvolution
partners
primitives
##han
storm
##inted
##tility
incorporation
modulations
##forcing
speaking
translations
ccs
##zag
##amped
spoken
coin
accuracies
tilted
vlbi
wikipedia
rabi
##phere
volatile
isoper
matlab
subalgebras
discriminate
drinfeld
##rose
##aker
inhomogeneity
identifiability
bone
cohomological
isotopic
corrupted
rac
##aday
worlds
lieb
nova
genomic
depart
reliance
traced
##meas
unobserved
boosted
##etermin
suppl
implication
oxides
triggering
bergman
teichm
dns
expres
##utation
assim
##coin
noetherian
seemingly
fused
compromise
pent
##sification
conserving
sure
incentive
etale
faraday
cubes
cyclotron
pad
discharge
dq
##sation
##oe
hyperplane
rol
##atus
mirrors
deuteron
compiler
##ett
unr
##ewidth
visualize
landscapes
airc
homogeneity
creative
legacy
itin
imf
poset
solitary
inaccurate
homogenization
scarcity
##valent
dusty
triggers
stakeholders
##ulae
incomm
multipar
2002
peaked
polygons
eleg
photoelectron
monotonically
dv
executed
chamb
overestim
eulerian
hers
loud
##phones
devised
disconnected
owners
sweep
ng
##icz
matroids
dichotomy
cooled
eliminates
itiner
fred
kohn
##fort
cortical
displacements
sali
peripheral
grassmannian
mono
converter
picard
propulsion
##200
academ
##otonic
##simil
kaon
doublet
antineutrin
##nam
##terra
emitter
antiferromagnet
namb
ldpc
versatility
avalanche
##propag
##onium
preferential
##ceptions
pions
concise
inhomogeneities
lap
compelling
quantifies
suggestions
##elle
##umped
generalizable
ordinal
reproducible
##ij
volterra
restrictive
triangulation
occupied
illustrating
gut
dropout
proliferation
intention
alternate
pend
##eted
converse
depar
plants
segmented
harder
zigzag
click
transferring
lusz
bialgeb
##urm
nonperturb
uncorrelated
electrochemical
lusztig
arter
qp
wetting
satisfiability
monolayers
instanton
accret
icm
multipole
website
##ocentric
orthogonality
interconn
sublinear
ft
##2d
##rones
epistemic
##eno
appendix
monitored
bragg
flavors
##proble
freezing
shares
hypothetical
provision
biochemical
backscatter
panel
dyson
nambu
resembles
##acci
treewidth
##ima
widehat
##urcing
rows
thinking
##chetz
lefs
probable
transmissions
##aux
autonomy
bitcoin
synthesizing
squeezed
prescription
lefschetz
##amoto
cohes
rewriting
elic
aligning
son
superco
validating
##queous
luttinger
2x
crafted
##rant
##51
##eling
drif
translated
dichalcogen
qs
##quis
potts
##2vec
memories
packings
sustainability
divisors
hg
pseudoscalar
comprehensively
##rology
##icks
conce
invent
texttt
slo
tremendous
ae
joh
supercritical
concentrate
ligand
underline
duplic
fibrations
automate
splits
winning
hbar
systemic
affir
reciprocity
##minus
##uous
##chel
sey
discretizations
incompati
pedestrian
##90
elemental
pollution
overlooked
##ette
transp
homomorphisms
compactly
harmful
skeleton
bab
adverse
problematic
cosine
precoding
shim
##rans
stan
stocks
altitude
interdis
installed
hs
vice
dissimil
##ronics
##atics
confidential
##issner
sympt
calibrate
sales
thermo
affinity
mse
##anged
irresp
versa
discontinuities
claimed
##ran
bru
radioactive
immersion
chambers
approximates
constituents
tactile
inp
substructure
exces
drawbacks
illustration
accomplished
isoperimetric
##ese
##asting
uniaxial
squeezing
american
imputation
dx
tutorial
distinction
photodet
inclusions
polygon
##o4
minimized
reminis
bounce
elegant
bisp
bijection
maxima
amp
walking
iw
##rust
sourced
company
meromorphic
correspondences
monolith
attachment
lunar
bot
fish
##34
methodological
merely
irradiated
t1
##ensible
##periodic
clocks
meets
aqueous
grade
deletion
##ovich
amplified
packages
crash
governance
foliation
meter
cred
microm
tier
repl
attitude
##iors
##rences
stm
prep
upsilon
dissem
pitaev
upt
makers
complemented
encompasses
koop
destroy
scalars
sampler
obscured
chen
adapts
restricting
simplifies
##za
classically
nanoph
ranged
routine
fibration
apparatus
hii
march
##rh
##ume
specially
##augh
cumulants
ignored
700
##thal
eq
nice
interle
heated
connects
emergency
trusted
cryptoc
koopman
conve
locate
submill
election
fle
wan
byproduct
disorders
snns
everywhere
suspended
silica
lms
dioph
deline
richer
automorphic
comprised
scratch
gir
aber
##eger
codec
converging
fresh
resolvent
lipid
forgetting
curriculum
##aled
spectromet
outlined
multifractal
occlusion
translates
seyfer
sag
imaged
setminus
commission
schmidt
seamlessly
geographical
##nets
sql
subtraction
goldstone
ruled
kelvin
##oke
fins
minimizers
2001
winding
explosions
permeability
pw
##tium
##rage
domination
sio
##inform
cheb
logs
cahn
##55
bullet
vlt
##esh
##atur
stain
eddy
gaining
painle
android
undert
longest
##enty
masking
collapsing
compensate
tetrag
##rg
island
defenses
catalogs
wavefunctions
indistinguishable
kost
discourse
voltages
envelopes
elaborate
##nik
speckle
electrolyte
pq
observatories
bohm
##yshev
equatorial
cantor
week
imprac
india
austr
fastest
cx
rham
##planetary
nebulae
wes
undec
worth
silver
encouraging
adverti
bracket
pitaevskii
##utable
unequ
evident
armed
aircraft
cps
revised
abc
capacitance
citi
gnns
rnns
##zes
universally
##iii
batteries
transcend
herschel
##ametric
raise
reformulation
vehicular
societal
nasa
hep
mad
blazar
qm
##arization
lossy
exchanges
diophantine
admin
brightest
deconfinement
adhesion
onboard
amino
tracers
precipitation
dend
jul
overcomes
chemically
turned
##jections
##26
receiving
warped
perceptron
bib
##economic
deterior
asser
initiate
encompassing
transistor
thousand
sacri
infeasible
democ
snn
survive
institution
secular
langlands
bolometric
lda
unt
arpes
plots
##ought
rhyth
##witz
##ena
##igne
##roll
tiling
degraded
wolf
reminiscent
##orn
engineers
expressing
determinantal
disrupt
apparently
optoelectronic
unchanged
incommensurate
irrespective
##nr
##adequ
failed
intersecting
tangential
hints
##ensile
yielded
tower
unreli
steg
clip
multist
systematics
##rightarrow
amplifier
inadequ
actors
realm
hydrostatic
adopts
watermarking
##vant
merit
qgp
coil
graphite
proto
experimentation
matchings
##acoustic
envision
positional
strengthen
swimming
##eles
geo
##erve
enyi
##agon
collectively
impair
hashing
dilemma
anticipated
schroed
java
sulf
##oux
resh
assignments
happen
citations
wer
##ipot
door
ferromagnetism
motifs
csp
witt
##hbach
asks
campaigns
phosphor
isometries
##oning
seq
overcoming
commons
sinus
decode
##46
##inating
valuations
roberts
feedforward
organizing
voron
dislocation
vesic
tach
##kb
stems
getting
manifests
accumulated
encrypted
monochromatic
tetragonal
##io
##ux
selectively
deepf
kosz
tumors
motors
ignore
marginally
##lies
##irus
regulated
surely
proceedings
##otive
attackers
formalize
##rab
ambiguous
svd
gelf
ew
k2
trigon
song
converting
misspec
##bhs
favored
spikes
cen
odes
##bursts
koszul
finet
collaborations
reservoirs
monopoles
monge
surrounded
northern
feshbach
ble
mang
geographic
bug
mdp
ons
else
deligne
radon
sip
##user
bandits
sheds
warning
unet
generalise
fluor
recommended
quaternionic
sort
##99
##37
apr
imposes
##ridged
germ
##ecker
asteroid
diffractive
bins
conveni
urg
placing
assistant
women
##sev
apprec
classifications
modifies
stands
protostars
interdisciplinary
##db
##ocar
##fo
dipoles
gradual
nanorib
nonperturbative
chebyshev
maser
##alytic
ejected
poisoning
##nor
strang
finsler
correlates
seyfert
sacrific
##atron
microfluid
artifact
rn
absorbed
depths
littlewood
gating
##uned
##aki
collim
circumvent
accompanying
astrometry
##luster
precursor
zar
##aping
reader
gelfand
bps
pus
rum
metabolic
money
tracker
minority
resemble
##asis
conting
reflex
vla
floor
assigning
enlarg
erasure
xu
abridged
cars
endomorphism
definable
advertising
schroedinger
progn
utterances
expands
branched
tpc
benign
voxel
##uated
##osk
unw
toolbox
violated
##holm
mamm
spectrally
surge
pathological
indication
vacancies
strains
utterance
wrap
##folds
machin
##planar
gravitating
visualizations
##ittance
suppresses
spoof
folds
##36
##28
disad
orch
quivers
expense
parallelization
orion
confirmation
navigate
hate
resc
##diff
multimedia
disadvant
unic
persists
summaries
falling
actuator
respiratory
##md
##ella
fibon
miner
superradi
indecomp
checked
crystallization
friedmann
##odynamic
calcium
gravitationally
gly
spt
pris
absorber
plasmons
gray
##eword
##lenbeck
interpolating
permittivity
itinerant
pas
ple
paving
accordance
formats
differing
learnable
autonomously
compromising
ost
##alistic
##edict
niob
crop
heredit
crowdsourcing
invisible
##ravel
aluminum
impractical
##38
islands
##agog
##inskii
##omon
relu
goodness
##fa
trustworthy
affirm
sps
##former
magnetosphere
cobord
cognition
spans
epidemics
supercool
void
##iber
coated
schema
microb
documentation
poincare
mant
##glow
instanti
diagrammatic
attribution
solvability
uhlenbeck
voronoi
##ellations
localisation
##ategories
anosov
runge
adequately
qd
race
spark
pertain
afric
##nia
redden
purch
loaded
justification
diminish
lasing
sought
##2se
dispersions
cath
hing
##iant
##arding
circles
separates
##thing
indicative
tilings
pedagog
nord
##avity
##pp
altered
relaying
repeatedly
pharm
##smooth
deviate
wing
sturm
##requ
loci
telep
divisible
photovoltaic
backpropag
rotor
holography
unravel
ended
styles
contrasts
upstream
symmetri
fraud
##mn
localize
exclude
densely
pages
specifying
##cut
##uing
flood
slopes
ska
misle
frb
nanotube
shielding
bv
pepti
kept
##insky
composites
fibonacci
##agraph
##weighted
stroke
saliency
##b2
##unching
intergalactic
stepping
thompson
sas
wak
org
##retely
leaders
planetes
augmenting
advantageous
assimilation
trigonometric
##oskelet
colloids
metrology
##ensors
subvari
halluc
circularly
psychological
unreliable
##biotic
mlp
##vable
mainstream
pseudor
portable
sessions
underdoped
obl
limb
lexical
cortex
##oric
presum
simplifying
ak
fpt
##nier
toda
knowing
variances
endpoint
lifted
passes
launched
julia
clo
braided
submitted
payload
alz
detectability
incentives
heights
polarity
microt
names
destructive
og
##tiveness
polaron
nanom
photoionization
ignoring
##etermined
kick
##omially
propensity
soil
constrains
commands
pyram
leptons
monolithic
para
orn
##yne
##related
machinery
##49
confusion
gaze
remarks
##fferential
leptonic
disentangle
##elt
gait
octa
##ritical
relaxations
akin
m31
##mp
##formal
##oseism
semilinear
resum
originated
##ship
institute
earthquake
##ilateral
compilation
decor
commod
delivers
travelling
piezoelectric
##ston
splines
ao
kut
mum
##iters
codeword
##arms
##itories
##ylene
submission
hedging
decidable
promises
extraord
animals
lecture
dispro
chow
radially
psf
pnicti
kt
##ql
##bow
involution
trip
##0817
hydrophobic
ath
charmon
spheroidal
facebook
##rae
nons
bellman
##light
##ationary
multin
undet
polyhedra
legi
misalignment
substructures
flatten
##enceph
fredholm
##ceil
amaz
differentiate
hindered
unidirectional
avenue
removes
summarized
aur
##3d
##ynamically
facilitated
imperative
manifestation
##idability
##agen
slit
superfluidity
subp
infections
starburst
essence
translating
cylinders
degrade
ecosystems
metropolis
subproble
polylog
conformational
##fly
powder
industries
fingerprint
surpasses
destruction
searched
hamming
##aya
regener
compressibility
ids
download
evolutions
superlumin
delivered
courses
fog
timest
##iro
nonuniform
liver
breathing
strand
mori
stretched
pla
dispatch
trim
##rosp
lowering
semiconducting
keplerian
moore
stationarity
##relativistic
##iation
indisp
lessons
drugs
vaccine
fg
yam
possessing
##eech
##inations
thermodynamical
inconsistency
##chains
##exc
prototypes
fate
##anonical
prostate
enforcing
propelled
simplification
receives
burgers
bilayers
paramount
crs
normalizing
cascaded
unnecess
pendulum
census
interplanetary
redistribution
civil
sloan
3c
eis
tighter
formulating
amplify
##56
##odule
storing
actuation
motives
weaknesses
##uss
interacts
gws
tuples
alzheimer
eh
orientational
heterostructure
disentangled
counterexample
isoch
polynomially
softmax
indexing
pyro
command
framed
eigenvector
prevail
inap
eclipsing
excessive
tele
justified
seeds
kry
##oom
##onormal
sham
factorizations
prolong
##tious
anth
comfort
flowing
keys
holonomy
diverges
lsst
aes
##ulators
weiss
qui
heavier
spaced
indispens
##acking
operad
##avirus
promotes
ross
##bench
##asor
styl
laur
eigens
##pherical
bottlenecks
johns
##sten
regress
mechanically
everyday
container
idealized
sodium
##ocy
dimers
partner
suitability
##slant
reconfiguration
wavenumber
##eign
##idents
omn
microphone
submillimeter
renders
nept
perv
exercise
bg
unbal
unifies
biometric
##ankel
ultral
influencing
anticipate
destabil
latitude
tro
ramanu
coexisting
hurwitz
captioning
east
nonrelativistic
dr2
stimulus
polarizations
gathered
confounding
culture
biomarkers
igm
tile
inten
inflow
cascading
##icially
##ferro
minute
concluded
instrumentation
nondegener
bibli
##particle
lossless
arbitrage
brighter
grammar
contagion
dressed
kk
kaz
##quad
slide
rationality
stegan
krylov
gig
##arian
semipar
##oked
alignments
##apeu
begins
polycrystalline
auctions
chips
meg
explosive
adversaries
tensile
##nard
##39
##atric
trainable
photom
impr
indispensable
mounted
structurally
afterglow
eigenm
obstructions
ramanujan
smartphone
assembl
underscore
unconditional
eso
##ony
sph
ample
deflection
##fusc
relays
##aken
positives
dilation
entering
##cn
##ichi
firing
attracting
resolves
##bye
morita
unambiguously
##othing
digiti
fiduc
##ser
digit
1999
bao
infrastructures
indecomposable
nlo
##axis
torques
han
transits
retains
coherently
kahler
jack
disaster
##agent
pleth
commensurate
designers
contributed
microns
auditory
kuramoto
elongated
irrational
##tments
grounding
curvatures
guaranteeing
actuators
san
##yr
selectivity
degeneracies
operads
hyperelliptic
curie
grouping
shapley
##titudes
seasonal
quintess
##hu
##osol
revisiting
unavail
orchest
cep
fasc
massively
##ilic
debye
engage
activations
##binary
##house
detach
screened
attains
unimodular
shimura
regularly
determinations
##oless
seminal
stir
kronecker
vocal
multigrid
gw17
iras
##oni
beat
##essels
multiferro
##athin
refining
predictability
stemming
pristine
##away
##iski
actin
wasp
##classi
bringing
legendre
##hlung
oxidation
##va
ary
compartment
unpredict
ornstein
hitting
qr
neutrinoless
mimicking
compactifications
prefix
richard
coronavirus
intercal
##ostatic
automating
modulator
isotropy
commonsense
##58
##van
finer
arrow
polydis
closing
backpropagation
mle
prey
laguer
ultrathin
##refring
laguerre
bt
hankel
##urus
trying
flaw
axions
provable
##change
1998
passi
supposed
residues
pbhs
zariski
tap
##gas
##physical
subdom
indef
antipro
saw
intuitively
##anese
necessitates
kutta
ces
##do
##wich
##roc
##ingual
byz
##ipse
depression
borrow
isolate
dicke
projecti
##gd
##oclinic
##unt
birefring
clinically
barycent
##iously
banks
1e
opened
reflective
transmitters
asteroids
##zens
##entist
nonrec
archive
siam
integrator
histopath
executing
paris
frbs
neighborhoods
conflicting
hereditary
semiparametric
##hy
conductor
hardly
kdv
fiducial
csm
##hing
reheating
lorenz
delivering
cohort
rx
mpi
bimodal
##quisite
supercooled
ties
##rc
##zers
##omin
refraction
buoy
websites
nutri
accreted
m2
mention
##pered
moody
indian
squid
digraphs
orthonormal
##cious
##no
##ocations
noted
underpin
transferability
compete
tachy
mur
arcsec
enjoys
ton
intel
ours
suprem
decomposing
vessels
##pb
singing
mediation
aster
readers
emphasizes
yout
##rous
forens
lhcb
melt
multich
counterexamples
twofold
email
milnor
violate
compensated
proceeds
subdivision
curated
minimizer
helping
##ographs
350
aus
tackling
##strahlung
##52
##echanics
engineer
abstractions
delocalization
mich
roc
##far
##alk
explorer
polygonal
rat
memor
utilities
memoryless
128
commutator
ribbon
nonsmooth
moir
##000
marketing
auger
##bc
multiply
polish
diffusions
crystallographic
tractability
eclipse
eavesdropper
subcritical
manipulated
kull
metabol
##omponent
differentials
west
##win
posets
neglecting
downs
converters
johnson
##ritten
became
profiling
polyakov
reversed
bispectrum
byzantine
danger
neck
##zil
protecting
handled
visualizing
participating
conjugation
dubbed
levy
photomulti
approached
dependences
superlattice
##ivalent
corroborate
monocular
rolling
antim
raising
106
messenger
deuterium
repositories
##ipotent
##47
##alg
##itably
##tino
cof
reachable
decoders
misclassi
adsorbed
cepheids
tuc
obfusc
geomagnetic
quasiperiodic
kullback
ams
##rosion
pbh
gluons
ethics
enterprise
lose
sizable
##ocon
seiz
contractions
bump
ek
lub
##tings
unambiguous
photomultipl
stably
unify
##alling
notor
frequentist
##hombic
aperiodic
unequal
nonrecipro
##lets
endomorphisms
handles
facets
##otherapy
kne
##tian
recursively
mond
##oz
##egel
##ommun
robertson
##uda
interatomic
oz
really
twee
movi
integrators
histogram
conflicts
orbifolds
sandwich
antisymmetric
wmap
##eks
dioxide
rao
localised
motivating
closures
enveloping
displayed
legendrian
snapshot
muscle
departure
##pm
##lc
debugg
preconditioner
exogenous
governs
advertis
idempotent
painlev
dress
sap
deplet
markers
therapeu
scholar
lightest
safely
electroenceph
shrinking
luc
thoul
twisting
foster
multiphase
thouless
bous
nonst
corners
stealth
legitimate
nag
defic
presentations
humanoid
evidences
parsec
obeys
prepare
quiet
inex
prere
attosecond
tunability
adaptable
entails
household
cere
##orld
frictional
www
bian
##tance
interoper
endpoints
moral
interviews
oam
##ona
hands
breakup
vanilla
mssm
nvid
##jet
replay
diarization
perceptions
propri
190
forthcoming
alkali
antineutrino
##atrix
##ermost
subwavelength
snrs
magnetoelectric
spintronics
atomically
embeds
complementarity
tol
propositional
##caling
indexes
cheap
##orient
##emer
##uses
nonm
colours
indications
sdp
arranged
##boost
homeomorphic
prevention
nvidia
kram
##strom
thereof
slicing
descriptive
portfolios
yba
twins
correlator
instantons
##onuclear
##ixing
conceptually
multimode
assistants
transversal
mps
dispersed
ready
germanium
mec
sos
acous
derives
nanometer
fuse
teachers
khov
spintronic
waste
ere
proactive
outdoor
externally
diameters
oblique
charmonium
fun
rosen
##elberg
geant
##auer
reducible
##imeters
gemini
routinely
hon
tame
##zable
##graph
curse
haar
treats
displaying
stimulation
suppressing
inadequate
july
##uary
##ampled
prism
resistant
bars
weib
sept
##ionic
polarimetric
##onald
june
printing
connes
uller
affective
reviewing
pinned
##oscopy
leibler
##yle
una
acquiring
sdes
isomorphisms
greatest
cocycle
kid
equity
maker
optimizer
pneum
innermost
controversi
absorbers
##structural
##cient
rods
recipe
unbalanced
##erb
reb
acute
##rolled
conductive
assemblies
communicating
handw
wideband
countermeas
penc
save
##cati
euclid
inspiration
nac
pes
claus
separability
##lie
##whel
ood
tub
perimeter
##key
##racted
##efield
diverging
supersonic
magnetohydrodynamics
hinders
epidemiological
##pret
##otropic
stochastically
nanod
transmitting
ara
##53
checks
mechanistic
propagators
compliant
figures
subhalo
overwhel
ctc
inversely
receptor
pam
##ester
weeks
twenty
supercurrent
gil
consolid
helix
french
replicate
##ara
imit
schol
holding
propagates
personality
cadence
unnecessary
dh
tevatron
gesture
incompatible
inexp
errone
marl
specim
hyperbolicity
identifiable
indirectly
inventory
jun
inception
regge
superalgebra
reverberation
textsc
register
pier
##kp
##iser
stochasticity
170
superlattices
rescaling
punctured
##59
inval
linkage
adjustable
functorial
nanoribbons
pedagogical
pim
your
unpa
##fully
inacces
sinusoidal
wet
##57
strengthening
martin
tags
journals
equilibration
rogue
laminar
##olecules
lobes
wakefield
##abe
##ifi
regulations
surfact
factorial
favors
anatomy
2g
detrim
presently
visit
refin
brems
trick
ideally
tiles
concurrently
rescaled
eft
##osa
diodes
penrose
240
stoichi
expressiveness
##imaging
##ells
superflu
digraph
revision
participant
laurent
bremsstrahlung
amm
bci
packed
##artz
brazil
pdfs
##ospectral
h2o
ccd
kb
ok
rankings
eliminated
mumford
3he
rer
##holes
##rey
surpassing
durations
gw170817
hir
kv
mh
retraining
extractor
excluding
ontologies
pushing
lectures
darb
fring
investors
perturbatively
predictable
##cr
##quist
scru
##allis
extr
reputation
vacua
positrons
professionals
cac
##angent
querying
hydra
disappears
epitax
january
darboux
##xs
##olic
##rics
splittings
disagreement
coarsening
inevitably
scrutin
lighting
ud
##lp
levit
conscious
##ophysics
impulsive
whit
##pton
conforming
##ycles
stripes
ahar
contours
arn
serre
steiner
elevated
street
strangeness
microfluidic
ltl
pev
voids
##enter
resampling
motility
##rosymmetric
folded
spanned
noticeable
extraordinary
##amic
##edible
polarizability
ctr
aerosol
reddening
cation
drones
##96
##plas
unipotent
relied
##after
preferentially
checker
porosity
geant4
photospheric
reflectance
reformulate
witnessed
bent
timed
ellipticity
euv
delocalized
rheology
##bral
##97
##ete
opa
quadro
birational
uncovering
lennard
send
##bands
##2as2
degeneration
supplementary
verifiable
dichalcogenides
bob
ov
printed
reflectivity
terminals
spoofing
gj
voter
photoproduction
undesirable
nondegenerate
agency
worked
semif
##inormal
##ito
took
attrac
memrist
implant
bigger
kirch
##rases
conic
distil
##roup
thermodynamically
orthor
participate
synergy
rearrangement
sde
zip
expose
mapsto
wannier
jp
liquidity
simplices
cfd
regulator
ys
##icate
##ematical
apis
multiuser
assurance
merits
cpt
veg
realism
inspiral
physicists
asteroseism
optimistic
subtyp
allocations
knee
##ommunic
220
keck
vascular
##qr
##aso
outgoing
accelerates
runaway
accessing
younger
chordal
april
##echn
behaved
transferable
tomographic
dividing
philosophy
pill
##urn
rectif
occurrences
actionable
##oreson
comprise
convey
invalid
##vm
thrust
##arth
##rep
genai
##nss
##ehler
instruct
motif
glyc
multichannel
fw
##mo
twists
polymorph
sharply
coincident
circumbinary
summarizes
dichro
vgg
graining
managed
guides
wavelets
siegel
congruences
trustworthiness
##vd
automotive
catalogues
##olymer
fcc
merc
stone
extensible
erup
patterned
shedding
anchor
misleading
wood
##oral
##apses
predator
##lms
##oly
ancest
unpaired
recru
fragile
tabular
##ower
homomorphic
programme
renyi
organize
lagrangians
evidenced
jail
##fr
detuning
decomposable
victim
energetics
##ulty
interl
##thermal
digits
tradeoffs
commodity
nai
pumped
unrelated
served
audience
multicomponent
khovanov
flaring
undergrad
imager
sublattice
teller
levi
sep
binom
chemot
keeps
james
lobe
inevitable
cycling
inconsistencies
disparity
inaccessible
dun
git
smear
factory
softening
gluing
protostar
cyclotomic
dissemination
zf
tof
clues
preceding
ende
neglect
vdw
ras
##sight
##abelian
sim10
rotationally
mimics
symptoms
inexpensive
tied
chun
##adjoint
strata
regulate
besov
annealed
reformulated
harnessing
maneuver
fn
gad
##network
##elson
reside
speculate
voters
paradigmatic
prospect
hint
##uttered
##ountain
diluted
socially
subcategory
jitter
dihedral
deployments
supercomp
##2s
italy
outlines
semist
contribut
restore
hosted
kinematical
fwh
##hoff
official
gravi
##soft
accumulate
psychology
gathering
unimodal
descriptor
rainbow
zonal
##yer
##osure
iterates
landing
aggregating
concludes
artificially
roman
tableaux
immersive
western
tg
wt
quantiles
bidding
coalition
fibres
supplemented
synergistic
vitro
srtio3
fuch
king
##uchi
dyadic
##rological
##eda
schedules
hemisphere
untr
cdf
homeomorphism
tagged
europe
detrimental
cta
methanol
magnification
##rusive
lifts
fascinating
n2
roch
electrom
fingerprinting
vap
chim
acknow
1990
hj
thur
##inding
##imited
provider
categorization
terr
boosts
colle
surjective
fluence
populated
deviates
dilution
deaths
wormhole
amazon
##54
##hel
##etry
##sil
muse
quasicon
summer
gcn
richardson
##kd
##gin
glau
fruit
nebular
altering
quarter
2mass
osm
##rl
parc
italian
##acks
manin
quadra
sediment
hither
pid
coverings
fetal
pears
##rd
##thetic
quin
organizational
##atum
disj
pertin
contracting
cosmologies
personalization
inclined
multilinear
3x
##ued
chronic
outbursts
tries
##amba
frank
golden
transducer
ea
##dit
##uto
##ainter
transce
##ipp
realizable
constellation
##books
differentiability
overlaps
offsets
sacrificing
pertaining
parsim
regularizer
academia
hitherto
kgs
defoc
relaxing
spreads
cliques
compiled
glauber
meters
repar
collocation
imperf
showcasing
fingerprints
censored
fwhm
cram
##fm
##oder
genotyp
maximized
advice
aligns
smartphones
pom
##egu
agile
accessed
##khoff
inherit
plethora
2h
elections
functioning
gab
nust
##arri
##ovascular
freeness
##rie
methane
deficiency
##urface
manifested
zno
intermittency
orthorhombic
dra
suz
recyc
practicality
unavailable
september
jailbreak
fati
countably
collapsed
disparate
nona
plur
##cont
##scrib
cosmos
naturalness
gravitation
blockade
fabry
spacings
##ician
decep
grouped
cancel
cotangent
wheel
sell
confer
assort
quasinormal
password
deconfined
dislocations
pearson
rail
wds
sta
shop
supervis
magnetar
##lander
nern
tid
##ilab
##rami
marks
chromodynamics
favorably
fluorescent
debugging
zw
##2o3
ship
enters
enforced
fuller
convinc
contaminated
axiomatic
narrative
multitude
bistable
thurston
nernst
##nc
circul
flexibly
transcendental
wim
##hydro
##mas
##ithms
converts
universes
poster
neuroimaging
##iscid
nuanced
##acs
##ereum
plain
inviscid
retrieving
japan
quintessence
##bb
proc
retention
phoneme
tensions
electromagn
ilc
cleaning
lighter
##nelling
##wb
curl
heads
##86
psnr
logarithmically
faithfully
catalytic
misaligned
episodes
assigns
aharonov
##tosis
##planes
psd
explanatory
skewed
avalanches
mcc
mds
##ulture
revi
blockchains
slowing
salp
ppm
ethereum
cardinal
skewness
ward
##41
reissner
emis
polyp
creativity
subcategories
saturn
yu
##emp
tung
lyrae
230
antiferromagnets
shuffle
pores
coerc
liu
containment
tailoring
uncovered
wm
##emistry
##igen
##osome
tric
allen
safegu
contrasting
cult
wl
xg
##rides
constantly
billiard
underscores
xxz
scripts
telecommunic
##yb
impacted
decomposes
birkhoff
stripped
agricultural
therapeutic
bj
onc
preced
modulating
unavoid
urgent
fainter
##sia
spr
solen
locating
algebroids
hyperon
lasting
settle
kob
##fit
suns
smith
specialization
newman
##nians
conductors
odometry
##electro
bigg
degrades
mst
vp
##high
##vially
monetary
tunnelling
conditionally
clinicians
navigating
perovskites
##pack
notation
confron
cmes
odds
tuple
buckling
deceleration
salpeter
ratch
##ainting
solute
##ostat
matters
engaging
flatness
psl
##cavity
subdiff
anonymous
unrealistic
phosphorus
reflexive
##df
##imation
employment
foam
documented
nustar
ye
##cell
##ulas
leo
minors
##ova
##rink
manipulations
diverge
missed
riccati
advocate
multinomial
tsp
##unctive
synapses
balances
spirals
iib
foreign
suble
##illen
distributionally
cpus
inappro
putative
##asts
unaff
extremes
tsallis
jupiters
oblivious
hess
kam
##tf
ancient
##allel
payment
pfaff
fatigue
quand
planners
polarimetry
horn
grassmannians
unpredictable
##hdan
repetitive
erroneous
cited
delicate
heteros
##singular
hypercube
microtub
ego
distributive
glitch
organs
stabilizer
hotsp
pervasive
##oft
##ogs
peers
restricts
disappearance
administ
hiv
vv
##43
quillen
magnons
agre
##ospheres
colorings
uncont
restored
embry
inexact
##ulative
superalgebras
##olarized
friends
homeomorphisms
pertinent
sns
york
##onder
exac
bohr
##potential
novae
iid
##zi
##inate
december
uncount
observationally
##hab
reed
whisper
arte
nanophotonic
fleet
kazhdan
1t
##arithms
##imals
transformative
belle
nuis
ramp
billions
cohesive
mantle
kramers
360
wu
deton
##ewicz
photos
laboratories
interconnection
inhibit
prohibitive
institutional
movie
##quer
metri
cumulant
beltrami
kim
plag
amalg
impacting
initiative
incrementally
declar
##informatics
domes
backre
grassmann
nerve
bistability
hmm
pup
feeding
provenance
eigenstate
lexic
threads
depleted
superfluids
phishing
timelike
##akers
desorption
minus
eru
sinr
passed
rud
chron
centroid
negoti
unsolved
settling
undergraduate
parking
unint
airy
capsule
d2d
sho
chart
optimised
credible
hydrocar
ohmic
fft
zel
##98
alarm
quest
##uder
arrh
vertically
microp
disentangling
queueing
exacerb
losing
##sa
stores
remainder
mitigates
extrapolated
disentanglement
certificates
undecidable
cobordism
##vert
208
invasion
manipulator
strained
##organic
nss
tone
##iton
concordance
succ
receptive
##v2
prod
winner
heliosphere
rocky
toxic
s2
offic
comet
##chl
spinors
csit
##adium
perceive
##rime
smbhs
pockets
flying
##room
##rade
threefold
projecting
decouple
silicate
nich
##elve
upward
carb
macrom
tailor
##alosh
inas
subar
discounted
bios
macd
pipe
attempted
nw
##ket
##sibly
##ilin
##monary
mdps
jeff
commissioning
dzy
syl
extras
distinguishes
youtube
ati
basin
comparatively
funding
##she
diversi
zeroth
germany
inhibition
controversial
ysos
##rians
diagnosing
female
routines
landmarks
ownership
fusing
ride
##agin
asserts
feb
lightcur
residential
picosecond
laplacians
deficit
##litz
learnt
interfering
episodic
p2p
##inning
neutrality
quenches
hbn
bruhat
##dt
warping
torsional
skyrme
preconditioned
alexander
leibn
dzyalosh
##dles
##oge
noncompact
adjustments
surroundings
griff
austral
says
subsh
segal
formalisms
richness
coronagraph
hypothesize
noma
puzzles
tournam
birefringence
dav
eit
realizes
transitional
microcavity
quasilinear
wis
##lf
como
reeb
##ife
twelve
sof
carnot
policym
substellar
august
resembling
nuisance
210
pile
vend
vote
##72
andre
bear
looks
diagnose
multicast
hcn
ie
tq
dehn
##obar
centres
allocated
earthquakes
forum
##ifted
geost
japanese
moriya
2nd
fos
hen
kub
##gl
##iced
seds
upgraded
inpainting
fad
##ayashi
decidability
follower
mosa
echet
mall
variate
swarms
cardiovascular
reparamet
ari
cass
cbf
parameterizations
##licz
llama
eigenmodes
##arting
isoc
spam
orlicz
mature
rmse
stabilizes
annular
kaehler
gestures
pioneering
affirmative
ses
semid
threefolds
shortcut
mah
snapshots
kre
choles
die
novi
testable
behavioural
competitors
opportunistic
duty
vm
vqa
chlor
ferrim
compromised
##asoro
prerequisite
##ache
conflu
markedly
backscattering
indefinite
unaffected
macdonald
kont
qmc
##imov
atac
acids
unweighted
scaff
ultrahigh
virasoro
dichroism
##sal
schott
monomer
books
distinguishable
##tory
ing
##irs
##char
atl
transpor
avs
hierarchically
classifies
subsequence
tackled
viz
##pha
occasion
likelihoods
uran
srtio
stanley
clauses
bots
kit
tand
inorganic
reus
combs
researches
scatterers
ionisation
successes
prospective
pedestrians
leibniz
hw
nanocrystals
nns
##haul
emulate
105
retail
tracked
deepfake
multiferroic
reent
enforcement
achievements
##dson
ambiguities
payoffs
amplifiers
undetected
cis
##vector
##se2
intermedi
smt
configurational
##trations
energetically
decorated
ou
inability
rean
integro
pulmonary
copulas
moser
eigenfunction
unexpectedly
nonstationary
donal
legg
introductory
increments
inductance
##tifying
donaldson
nonsingular
multiband
##ober
centrally
homoph
subsurface
hollow
emphasized
filamentary
audit
pyramid
intentions
celes
kra
##more
outward
amor
respects
tempered
preclud
motivations
1995
arguably
das
kalu
ssim
##olov
dial
letters
cm2
seeing
regulating
nonreciprocal
cii
kum
geophysical
segmenting
amalgam
acs
interband
topography
concretely
1996
fpgas
marginals
bisim
oss
##urced
fores
##rif
evanes
##otherm
manag
optima
##inesq
labelling
epile
olig
neptune
cable
##odyne
phononic
collapses
preconditioning
tentative
bouss
imperfections
rpc
reh
combus
edm
exoplanetary
brackets
exceptionally
##sevich
##oa
##ali
##etap
quanta
concavity
fdr
coatings
supergiant
disrupted
atacama
celestial
nothing
pict
##42
conformation
##oscale
tril
unphysical
##eball
##liest
genomes
retrosp
duals
pseudodi
lags
##ikh
sparsely
3000
chandrase
phenotype
scholarly
kore
adam
trait
developmental
microstructures
marine
puts
obliqu
parallaxes
equidistribution
microgrids
e2e
novikov
boussinesq
aqu
mgo
stories
aps
deliber
spectroscopically
intelligibility
drude
miniatur
kaluza
chandrasek
hitch
##rance
moe
spinless
marker
fermilab
modulators
sixth
unsteady
quadratically
cree
lcd
rans
##aper
corot
normed
steer
escaping
multitask
ineffective
refinements
bile
dsc
##tibility
##oding
distric
amr
historically
##electronics
bianchi
kontsevich
schottky
pap
rpa
wav
##oints
##ji
toi
weier
##rome
parker
emulsion
lofar
conventionally
malign
chatbot
superluminal
##yah
intim
monomers
smoother
antiquark
conformations
hearing
unsatis
precursors
lond
phrases
methyl
calder
subsampling
unveiling
dynkin
replaces
cryptocurrency
opaque
nmf
wiretap
installation
subpop
combustion
pale
ske
##hort
##odel
##otor
perf
listening
exposures
bouncing
tandem
luminescence
##ny
##free
##enes
spine
##operative
seebeck
1997
overheads
contradic
craw
##sn
exer
reset
adults
##iveness
layouts
wafer
theme
parametrizations
disparities
contradict
reinforced
kirchhoff
eruption
hiding
##core
sports
##unte
##ensen
orderings
radiologists
enzyme
destroyed
pseudodifferential
mcs
rural
##leman
alg
##ched
crime
micrometer
refines
platoon
draws
fillings
##vo
simulates
typed
representable
gaussians
interfac
mmse
strips
lithography
ejections
mine
##eco
predicates
biasing
themes
peb
benchmarked
sulfur
notoriously
gmm
kan
##tized
spent
cloning
unru
equipar
##eweg
1980
formalization
shadowing
##ativeness
##iberg
penalties
##67
##erves
##chin
##ipolar
demograph
topos
epic
quadru
pinn
stick
microbial
tedi
##cp
obius
##rams
modulate
france
bonded
societies
vastly
allocate
atiyah
unruh
reorient
synd
rectification
captions
filtrations
technically
contractible
immunity
disruptions
chatbots
comoving
mouse
sav
##opic
loos
metaverse
alfven
lindbl
##aired
##lund
volunte
wald
ultrashort
uhec
russian
extrasolar
haptic
##aural
furn
gauged
ecology
encourages
parametr
deficient
polarised
angi
tmd
ferromagnets
viruses
keyp
polyhedron
grey
transcript
reconcile
prevailing
cq
nik
shut
ito
remedy
backhaul
merged
ellipsoidal
agriculture
chandrasekhar
aids
crab
##wall
##sions
refr
bafe
censors
eph
##arz
##ister
seiberg
##vile
##usted
gluc
purs
countermeasures
nesting
coli
magnetot
attainable
circulant
refriger
ach
panc
##oresis
spill
agentic
108
chooses
calibrating
mobil
braiding
glueball
bilateral
thicknesses
solvation
mildly
hydraul
pso
##61
usa
singer
masers
analogies
assemble
##integrable
arabic
##draw
##ela
##urg
resetting
sim0
abell
combat
axially
drawings
kpz
##uttering
niobate
acknowled
##ogether
anyons
pseudospin
steeper
susceptibilities
renewal
multipath
hazards
##expon
script
##rip
disf
phrase
evac
exposition
generalises
neighbours
dr3
hous
lst
lov
rota
margins
repeating
weierstr
3p
invoking
concurrency
hyperplanes
persu
mae
inverter
roadmap
swimmers
peptide
unev
overflow
subsam
hilliard
altogether
tellur
4f
##will
##elativistic
##sider
incurs
imprec
initiation
hurst
tedious
sending
##64
reserve
depic
endogenous
inhibitory
title
catastroph
auslander
catch
peg
prag
rbf
moist
algebroid
afterwards
dzyaloshinskii
##istive
posing
fundus
thinning
rupt
incentiv
scholars
css
anns
##vem
centa
willing
correspondingly
categorize
discriminating
rounding
contradiction
domestic
900
christ
usable
##erez
sees
##factor
sketches
interoperability
kod
attitudes
finish
##evolution
challenged
earliest
conductivities
responsive
dispersal
polymeric
teleoper
bism
barg
multiwavelength
##rystal
categorized
intracluster
venus
elsewhere
kau
qds
rw
rand
##75
verbal
consp
avat
scheduler
colouring
retained
interpolate
discharg
misspecification
unavoidable
bilevel
##teen
situated
strikingly
registered
buoyancy
ug
##mu
##ffman
qualities
designer
centred
##inct
viewpoints
gyro
bleu
quadrotor
gravitino
##path
unrest
borne
springer
supremum
overwhelming
backreaction
drain
ve
##otential
charts
hypern
questionna
glue
steel
suggestion
ellipsoid
titanium
assistive
speedups
sender
segmentations
cgm
##rig
intrusive
commute
representatives
mont
dissoci
nanosecond
proxies
london
weierstrass
bour
pun
disambigu
superimp
lora
nondetermin
commitment
dangerous
cz
##ocs
undere
esa
feel
##ptonic
profinite
dilat
unsafe
prosody
interdependent
nonmagnetic
wimps
m1
psp
somm
##fies
localizing
lightning
coset
buff
monitors
prohibitively
pullback
vesicles
censorship
##pon
metaph
emulation
angled
neutralino
debated
bioinformatics
schools
intracellular
epitaxy
##etyp
obner
biof
collimated
dol
wkb
##optic
basically
nonloc
halide
mesoscale
tumour
unusually
exemplified
equipartition
pig
##scs
selfish
establishment
eventual
completing
fractals
fabricate
coronary
ultrasonic
naked
subproblems
griffith
##95
##ald
prand
decis
butter
excur
intellect
braking
fragmented
maxwellian
october
cocycles
##standard
affordable
antiproton
##chair
##ensed
factual
gui
patterning
periph
lfloor
injectivity
##falls
somet
##greg
##unting
paul
##eps
enumerate
queues
inflated
swimmer
exchanged
presumably
iff
##iards
diquark
distancing
analysts
brun
deformability
rfloor
outbreaks
##borne
biomarker
pyrochl
pneumonia
skein
underex
traction
##ivity
triplets
turbine
unfold
billiards
anthrop
seizure
pictures
listed
##2c
withdraw
alp
evs
eli
adaptivity
1987
prescriptions
succinct
something
dome
nem
##dane
##onally
evasion
moons
overload
characterising
epith
observes
acquires
scheduled
truthful
twistor
conveniently
planetesimals
evanescent
cds
gos
##vol
dew
nonp
trivially
conjectural
commercially
cornerstone
compressing
toxicity
honest
kidney
kubo
hitchin
strands
phenotypes
spectrometry
posteriors
mbh
haldane
1994
inherited
elevation
mangan
handwritten
prandtl
pager
##ingular
noninter
solomon
exchangeable
phonetic
sharpness
lockdown
6d
zak
covalent
predicate
strategically
##kinson
drifts
plaquet
periphery
gru
tors
##gman
nonstandard
judgments
ix
##ees
##inally
##ounting
archetyp
empath
picking
xc
##dr
##js
##nder
propagated
gle
healing
rationale
scanner
dictionaries
patent
##abetes
101
responsibility
sdw
superradiant
demographics
cun
hsi
rights
isov
coplanar
standardization
male
stackelberg
inactive
cusps
dune
##hi
##wim
fuv
hell
ventric
##rw
##ica
##romic
##acher
holm
permission
burs
putting
programmers
impossibility
imprint
hk
##pd
##atten
adc
validates
hadronization
fuk
occupy
fuzzing
attentive
fostering
mjy
compartmental
surfactant
tungsten
kobayashi
gol
pel
pspace
##tc
##rites
##finder
fort
diabetes
subd
founded
privile
factorized
holonomic
rises
regards
intersti
##zyg
unwanted
subvarieties
3n
##ng
##2cu
##ods
numeric
crosses
petri
disadvantages
##requency
##eas
contig
hardening
##inking
##torch
prioritize
histopathology
australia
##eland
lovel
blackbody
hospit
habitability
finetuning
pnictides
pagerank
tits
##zm
ch3
negativity
daw
gratings
intimately
mari
nps
infeld
wavepack
latin
breach
facet
magnetometer
intersect
substituted
gdp
ultrar
pocket
unpolarized
policymakers
4x
mamba
vhe
##jectivity
demo
singly
bart
quarkonium
experiencing
tcp
monomials
exemplify
oph
vy
##aj
exfoli
chalcogen
##andering
underm
##iano
connectedness
reads
soundness
axiomati
##lusters
galilean
illuminated
girth
pseudorap
fov
kas
inferential
##heuristic
sio2
portions
schwartz
arcmin
dilepton
obeying
##ogee
##erk
##emes
crim
136
turnover
rheological
galileon
disclosure
##exponential
gnss
m87
##tag
##elman
discern
analyticity
nmt
econometric
referring
lamost
manufactur
commutation
injecting
enclosed
parsimon
hin
coast
depinning
flame
initialized
knaps
tetrahedral
corruption
certificate
bbh
apex
novem
willi
etching
256
translocation
cards
denser
enforces
emissivity
hydraulic
apogee
verifies
universi
negation
denomin
oppen
unfair
exceptions
grammars
breakthroughs
mercury
november
pds
##jl
##gi
##gb
repro
cluttered
weakening
##berger
virtue
warming
arriving
winter
diffeomorphic
silico
szeg
exercises
credibility
ue
chond
subnetwork
redef
##assium
heterogeneities
overdoped
eel
john
##auty
##fel
##iler
canonically
corrug
burn
aggressive
metaheuristic
progressions
nyquist
projectile
intellectual
##lomer
##eworld
biaxial
codebook
sketching
formalized
pseudop
crypto
substitute
lsp
ascent
lean
104
monad
reinter
##eleon
veget
ultrarelativistic
fing
lum
mun
##odality
geological
improper
investments
remot
guard
2025
baum
crowded
##adian
bimodules
microswim
necessitating
koster
erosion
gabor
beau
optimizers
centrif
noiseless
cavs
multipartite
bns
berez
r2
tie
isa
exo
meant
equitable
##engers
minib
binning
antiferromagnetism
committe
wormholes
uptake
declarative
epithel
##hart
attend
potassium
positioned
##trans
compactified
reconstructs
subclasses
tweezers
pfaffian
dms
wre
neon
worker
longstanding
failing
myster
announ
tauri
tidally
electromagnetism
aromatic
iq
ui
tou
imu
##rication
defective
##cedastic
cuspidal
confidentiality
citizen
ogle
detonation
v1
zen
##04
##ida
##aceu
speculative
biophysical
rotated
transported
handful
likewise
cooperate
clarified
acoustics
##89
reth
microsoft
mitigated
divides
discipline
subhalos
dissimilarity
##repres
glucose
##xbs
deem
adatom
##ologist
noble
outlook
blast
accelerations
pressing
bootstrapping
igni
450
##bank
##kg
anode
mex
oversh
descend
blg
handc
braneworld
stripping
puzzling
lindblad
cog
dash
mbl
##channel
nonem
##agnetism
visits
perturbing
affin
catalysis
1993
amenability
fuchsian
ratchet
##omechanics
maturity
openai
career
proportions
reconsider
hawkes
preconditioners
chimera
3s
wdm
alert
basal
highway
##aka
laal
cyg
##homogeneous
scintillators
fulfilled
##antic
##races
schrie
internally
magnetars
photoacoustic
complementing
cxr
rhythm
ips
tx
asd
##occ
scram
##atial
myocar
rewrite
dexter
##perturbed
uneven
wreath
kad
kort
##ico
conquer
isospectral
##sid
unlear
projector
pinns
ephemer
underexplored
##jam
##aku
regularisation
sympl
115
deterministically
prototyping
judgment
cytoskelet
febru
hco
sut
##itant
##aks
covert
executable
dmd
sdr
undertaken
pursue
hove
thro
##acc
stays
unperturbed
distribute
##evapor
renormalizable
superpositions
knapsack
february
uf
zy
bijective
achievement
##linations
acceptor
hdr
economies
irreversibility
dictated
maneuvers
inefficiency
schrieffer
wifi
enthal
intensively
photosphere
parallelized
pm1
organism
colony
kilonov
janus
extrapolate
##aceutical
trib
diffusing
betweenness
overs
flakes
doi
brand
1970
samplers
regressions
underpinning
ace
gpc
lays
mx
ub
beads
semile
brittle
involutions
postulate
answered
chirp
tweet
arnold
pyrochlore
##bil
gennes
polarons
doubles
informal
governments
latitudes
pseudorapidity
kosterlitz
semileptonic
gun
##r3
##addi
perot
##attering
radiated
flop
relaxes
ferr
attempting
animation
jpeg
980
j1
rim
##alone
compass
##ional
multiagent
thermonuclear
downward
electromagnetically
fibered
inserted
eigensp
hospitals
kato
##rf
valve
faulty
inspire
annotators
##imetre
##zzo
debt
cvd
##osynthetic
catalyst
telecom
censoring
cuda
##yama
##agneti
symmetrical
calculi
calibrations
diversification
manifestations
license
humidity
ibm
sax
tls
resort
sensitively
gravitons
roi
decoded
bird
disaggreg
yamabe
cab
##elong
alters
##cha
visualized
##factory
peters
hydration
garner
households
onsager
appreci
proprietary
gilbert
bard
hts
mere
##isers
releases
photoevapor
unconditionally
robinson
microreson
##olymers
##umes
resting
overly
hallmark
renormalisation
envisioned
purchase
bibliometric
unrestric
kant
zeh
##tail
##nu
##rod
##omatic
indetermin
nonlinearly
retarded
sharper
hubs
pytorch
dilated
reversibility
season
eisenstein
fossil
pis
coher
equi
computability
dmrg
roads
multiplexed
##yaev
incurred
rupture
remotely
j17
##array
sim1
mov
signalling
superb
semim
##scri
inferior
tensorflow
braids
resonantly
1992
complications
leaky
incompleteness
cnt
eccentricities
immersions
lovelock
parsimonious
nonempty
sor
tian
##idel
debl
chess
diatomic
reddit
standalone
slots
collaborate
tdd
quantifier
citizens
enlarged
whitney
5x
##500
##opt
sideband
poissonian
crosst
rectangles
corroborated
fullerene
gon
prover
albed
##ande
##allic
unknowns
supersolid
publishing
hindering
garch
wc
##eff
##idium
unram
102
baths
microserv
bialgebra
xgboost
hits
hof
lanc
##kf
sys
entrain
sigm
linux
greenhouse
mtl
sends
vu
zag
##fts
distill
apt
precess
turbo
ramification
spanish
knock
cipher
creep
sommer
unrestricted
idi
pms
intact
defender
scatterings
partonic
river
displaced
##gaas
socioeconomic
adi
rope
rtimes
##qp
moved
biop
cru
suffices
quadruped
africa
oppenheimer
unramified
pace
##top
##mr
##iled
##abs
dib
parametrically
agencies
continuing
dualities
tio
photodetectors
2e
knn
##facts
resorting
interchange
phas
cobal
iterate
agglomer
passenger
immense
anomalously
ssd
dye
alexand
diminishing
flattening
rationally
sorted
isobar
cantile
phased
superstr
confocal
phones
ramified
saturates
corporate
rdf
xuv
resumm
universities
dream
docking
representational
visited
snipp
everything
narrowband
multiclass
involvement
inherits
##cer
##ira
##09
##66
##2te
##abetic
##idental
adult
recast
completes
harps
cheeger
efimov
steganography
korteweg
hera
##hf
##acon
##resolution
notic
therein
imprin
balmer
fren
narra
aberrations
bend
vries
deleg
existential
farm
catalan
synchrony
frw
##baum
restoring
##pheres
benz
microscale
aleph
photomultiplier
artefacts
##jes
##alography
##plastic
##agnet
tried
integrality
attaining
hook
bialgebras
convincing
exposing
correlating
prote
bregman
lifec
adjusts
coco
blowup
spectrograms
micror
salesman
centim
exerted
crosstalk
kaw
##urv
##ologic
subord
functionally
dsph
capacitor
uplo
martingales
griffiths
noninteracting
ignition
lup
##aev
##vation
##uries
asking
opf
flips
procedural
collaboratively
walled
discretisation
astronomers
fireball
crowdsourced
grip
mistakes
dressing
homophily
managers
vq
##stic
inqu
##entation
interrog
arsen
constellations
framing
eleven
triaxial
##iliation
replicated
terminology
allocating
pitfalls
defocusing
zehnder
lights
whist
##osc
undoped
realised
risky
moderation
conjugated
octup
temporary
rubin
cuntz
narratives
superpotential
couette
fixes
microst
quasist
ica
monolingual
##radient
currency
cracks
rubidium
d3
##xi
##style
dish
contractive
invoked
logit
##gging
utilising
pulsation
narrower
##parameter
rendered
businesses
hhg
rescue
aesthetic
dst
yan
##gal
wein
##izabilities
jammed
photocurrent
ken
seller
reid
##ague
tightness
spacelike
cocompact
buyers
pencil
fel
gels
##nic
##oping
backtr
1500
monthly
episode
frak
tips
##olor
spm
coalgebra
calculates
closeness
retriever
clearing
##ugal
summarizing
cryo
shadows
electrolytes
idempot
codewords
bondi
hung
iod
comets
perse
realisation
epr
##gans
adversarially
multiplications
photoexc
aerodynamic
till
pah
107
embedd
covariances
streaml
surrogates
macroeconomic
revolutionized
concatenation
germs
forensic
ais
hedge
##dd
##05
phy
##evich
blend
##ochemistry
refract
commutativity
cathode
tucker
electromechanical
4k
##diagonal
smectic
lesser
accountability
completions
ase
lcs
ncs
##lers
##anz
##ureless
composing
incidents
##ixed
hyperons
lowered
proportionality
regulators
transducers
wishart
nonlocality
##onc
##asters
##omput
nonmon
##intu
tao
substitutions
overdamped
1st
fres
clutter
##unctional
decides
excite
##deev
dropping
recoils
##td
##sb
##82
##atalytic
interiors
overt
##astron
radiotherapy
needle
payments
percol
alleviating
stylized
zz
prest
micromagnetic
electroph
webb
paying
suffice
wheeler
artery
polylogarithm
suzaku
ware
syzyg
browser
mgb2
towers
ascertain
4o
cash
hci
##bot
##bauer
##pan
##ndes
poloidal
promoted
antip
magnetospheric
histograms
auditing
aversion
bicep
prognosis
misclassification
ices
qft
##oco
loew
marking
cubical
stragg
tackles
undesired
handcrafted
1m
bud
qso
inward
##isable
stating
##inetic
nonthermal
defend
topical
semil
leqslant
david
1991
annulus
certified
charmed
ybco
judge
supplied
uncountable
disfav
kw
sst
amd
calif
securing
homogenous
ensured
hydrog
absorb
joints
successively
african
loosely
cir
hide
pont
##vc
compose
##che
arts
volc
partons
kinks
excesses
joining
receptors
aberration
##cel
stance
##phase
relics
##abilitation
encodings
magnetometry
watson
actuated
nanocomp
tabl
##wind
atp
depolar
calling
configurable
barotropic
112
horndes
portra
planckian
biomolecular
penalization
isogeometric
2r
sms
##lam
##erta
rej
spor
##apse
accent
126
definitive
taut
wildf
ellipsoids
office
decisive
fq
##aun
##assem
respecting
nanog
priorities
preparing
##urrencies
intuitionistic
obfuscation
lceil
simon
smale
knows
lognormal
consume
##aira
dissolution
dialogues
gyroscop
budgets
chemotaxis
horndeski
eik
rceil
graf
associating
mediator
broadened
prompted
armchair
subaru
reorientation
c1
sach
seld
sco
blending
impaired
harb
voices
miso
vlms
hertz
arrivals
elongation
epidemiology
juno
cations
darc
god
##rets
##fram
polarizabilities
cmr
tmds
intermolecular
transduction
cryptocurrencies
##2se3
mell
tick
zon
##81
##omeric
grace
##osign
shearing
##tran
listen
ligands
rectangle
flipping
underestimated
parisi
bomb
qoe
##zos
##irts
grav
##oscope
octet
transversely
wisdom
faddeev
butterfly
ficti
beating
nonex
concom
shortly
containers
residing
rumor
pharmaceutical
eruptions
ics
ji
sputtering
cheval
prescrib
scalings
##lexible
graphic
trades
biot
love
122
dama
balloon
corollaries
sapph
inappropri
isovector
bcc
mrs
zinc
isomer
##osomes
diabetic
noncent
spectro
fixation
adsorb
siamese
mountain
sier
##3o
regularities
cargo
launching
regularizing
visualisation
degenerations
cumbers
expresses
##ristive
ammonia
vapour
resummation
qw
basins
outsk
fermat
blocked
nonclassical
lymph
spectrometers
him
lots
pty
pcs
zoom
##inos
stoc
##ilot
parabol
underl
config
occult
authorship
violent
cvs
quintic
oversho
sapphire
csc
duc
##lock
##arin
coma
reorgan
alerts
wait
origami
ultram
accesses
adaptations
executions
preferable
fool
genetics
multilayers
fictitious
cumbersome
##size
shapiro
vectorial
sheared
pasta
eyes
commutators
jeans
microcanonical
intertwined
##aughlin
vesicle
contingency
mq
##ago
##entified
plms
##fying
bind
caution
counterintu
nanostructured
alterations
alike
dendri
##arrier
pragmatic
sommerfeld
vb
##88
##vability
disreg
designated
memristive
symbiotic
##isperse
nonadiabatic
eikonal
ih
sole
##code
##text
##inf
asic
interparticle
polarimeter
manipulators
milest
amortized
paley
##kary
coag
geosp
##parable
doa
phenomenologically
argues
portal
heteroj
broadcasting
interpolates
stairc
carbide
rab
sonic
ssp
xor
##asks
disasters
hasse
colloid
dirty
##overs
terminated
entailment
sparsification
swapping
eor
vt
##hou
##hard
##ghz
commensur
flrw
nucleoti
engaged
fundamentals
opposing
herb
bbn
hampered
congruent
traversing
intertwining
interleaved
chevalley
bak
##activity
reply
peier
concentric
conformer
trapez
##rophy
overlay
irreducibility
hypothesized
upgrades
exchanging
##enza
d2
prost
impar
reals
rotate
strengthened
pmt
vanadium
consumed
airborne
tio2
infalling
vaes
dissimilar
prolonged
interstitial
ptych
hri
##akian
nanomechanical
persons
strengthens
##reduce
peculiarities
neighbouring
tubular
consciousness
heteroscedastic
metrizable
cobalt
lifecycle
peierls
cro
js
##ua
##urp
adher
assisting
decided
physicians
involutive
herit
jacobians
mineral
##electroly
oj
tase
compile
eman
classroom
viet
rayet
ensuing
pmod
fragility
serverless
hooft
bmo
convenience
recruit
drum
lw
sers
##vents
intensi
##oretic
emulator
generalising
surplus
verte
##ishment
flights
pulsations
lya
shocked
elucidating
empowered
supergiants
systolic
kodaira
ck
fps
whitt
sim2
leap
ending
mcp
insightful
lanczos
dor
lsc
rq
s1
##horn
##edges
delaun
halpha
124
counters
cepheid
nondeterministic
pontry
dwell
jumping
tde
xl
bead
genre
arth
multiplet
blr
centrosymmetric
antib
quasim
underscoring
ancillary
##integration
pharmac
delaunay
cow
tides
wants
##cos
##gino
confront
pulling
purcell
surveyed
stops
##holonomic
logistics
echoes
heliospheric
##fields
kurtosis
philosophical
weibull
retrospective
committee
albedo
pontryagin
010
lss
sab
##07
##stad
sher
formations
logarithms
hyperk
followers
swing
121
reactivity
heterotic
military
stimulate
seriously
confounders
breathers
teleport
lcdm
entrainment
##300
hastings
futures
profits
steadily
premise
clumpy
meteorological
rkhs
hinges
contributors
biggest
reinterpret
outskirts
mack
wick
bread
microstructural
##ordered
scanned
batches
therap
reception
phenotypic
detr
infers
radiology
flick
ignores
department
memristor
endeav
tricritical
btz
##isen
prison
dataflow
sls
converged
illustrations
brains
stielt
melan
enumerating
steepest
##tifies
checkerboard
superimposed
pseudopotential
ckm
oiii
##arius
timbre
continually
iris
differentiated
suffering
microsecond
elicitation
vegetation
stieltjes
clarity
excitable
dopant
surviving
trou
##ema
##anda
perverse
edu
133
mcm
polytropic
802
uncovers
accommodates
clarifying
injury
transceiver
califor
concomitant
b2
gcd
##ola
stl
intents
scul
coalgebras
archi
superintegrable
grounds
posted
straightforwardly
##slash
controvers
legged
tough
antig
loose
21cm
merid
alleviates
unlimited
reusable
darcy
4he
assesses
inequivalent
sdn
multipoles
ribbons
gallium
disruptive
fringe
controversy
lan
spend
beats
##apping
unions
pathologies
taurus
spectrographs
##ekind
densest
densenet
copyright
##cardi
specimens
fukaya
kms
flam
researcher
explorations
configured
assembling
contextualized
hashtag
anchoring
rainfall
unmod
##eves
##mi
##62
##ulatory
equilateral
polyelectroly
combinatorially
progresses
dedekind
lema
hipp
loewner
buch
mip
##norm
##riang
perron
contention
investor
brush
118
electrocardi
passages
sunyaev
unlabelled
dispropor
mosaic
##omplex
reper
desi
flops
icl
lqg
superradiance
orchestration
semistable
##itarian
##rema
redes
##conver
crowding
plausibility
annihilating
buyer
stoichiometric
plaquette
backtracking
##cy
##step
##unet
proposition
impression
excitatory
pmts
dissipated
geqslant
chameleon
premium
interleaving
ferrimagnetic
cres
c60
lon
pks
##oen
##seg
structuring
##ypical
microbi
collaborators
eastern
bluesh
5000
renewed
impairments
pushed
pascal
bursting
inappropriate
sib
votes
##elets
##rav
##rium
parasi
flocking
##aterials
vaccines
anonymity
##prints
hallucinations
idempotents
gent
##bium
##perm
nonabelian
indium
##emann
replicating
courant
prolate
frontiers
nordstr
bismuth
katz
nonext
pezzo
organisation
narrowing
authority
huang
bimodule
spotting
permitted
prognostic
sunspot
california
mab
##ament
##iry
tridiagonal
causally
##uminous
articulated
qsos
college
512
boss
dod
wel
##uters
paraf
cloth
parameterize
excel
1960
sheath
diamagnetic
##otonics
sipm
stealthy
teleoperation
##cf
isoscalar
backslash
##ccs
certainty
stek
opponent
returned
suggestive
traversal
cerebral
deemed
eros
etern
sbs
genomics
curation
traders
109
anything
maz
123
lifelong
137
equalization
reverber
cfl
vocoder
isotopolog
reinforce
recycling
got
pir
zener
##rp
selberg
radiance
103
virtualization
prominence
manifestly
foliated
gallery
rejected
concatenated
dagger
##esium
##owitz
director
monads
analyzer
regularize
beamline
milli
informational
milp
pinpoint
soda
dawn
doll
##65
##tiness
##ocap
discount
secur
pathwise
##brace
discretize
differentiating
replicas
isotopy
bourg
tdes
began
##forming
##aria
interrel
nonholonomic
additivity
angstrom
directionality
mcke
ruling
rossby
fruitful
subleading
imprecise
deblur
##iture
##amond
datum
scholes
meanings
multiplets
releasing
4000
dqn
geospatial
teleportation
cage
##uble
##enf
brans
consequent
streamline
dmft
screens
undergone
survives
multiplied
##holomorphic
irradiance
clarifies
1989
lotka
revolutionize
v2x
rehabilitation
garnered
whittaker
slu
##pg
park
scs
lep
preshe
meissner
wavevector
##ymplectic
##reather
valle
##products
mie
readable
##2020
bandwidths
begun
ladders
injections
##dominal
intercalation
obliquity
movies
m3
tis
sund
clause
pointer
electri
spectator
envy
annotate
abstracts
violates
##ahn
tokam
oste
4n
veto
##oded
##otational
hydrox
decouples
sweeping
confronted
archives
d0
loses
oly
##83
##ila
##unciation
abel
overc
curious
deficiencies
backend
mck
chromatin
tipping
breather
muc
vin
##anet
oracles
selections
associates
slave
pseudocon
benefiting
miscon
misuse
invertibility
economical
columnar
harvested
flaws
evacuation
alexandrov
o2
wound
##olin
alps
neo
##ellow
deci
preem
hebb
##reteness
forwarding
chromospheric
crowds
cyberatt
certification
enumerative
##opathy
g2
hn
weno
##antal
lowers
##issociation
nanostructure
radem
ldp
##block
inversions
reactors
##born
adhesive
shopping
syndrome
oa
rust
vf
watch
##bp
##mission
##ason
##stere
##ols
receding
contrasted
biomolecules
educators
quadrupolar
superlinear
##amiok
hinge
zipf
contiguous
cantilever
mms
nations
tikh
##odulation
beauty
##uster
mathit
influenza
admission
initiatives
cooler
warp
gw19
manufactured
wolfe
necessitate
encapsulated
andrews
unlearning
fresnel
ler
wings
numerics
edr3
functionalized
ionosphere
birds
bunches
##aughter
funnel
rademacher
dal
rvs
tar
##06
##arbon
resides
ard
lew
multiples
expend
exposes
pairings
elaborated
australian
ourselves
gear
zeno
debi
quartz
##usp
categorification
plato
ledger
argumentation
elucidated
perihel
retina
abnormalities
recipes
storms
##ransport
octupole
gv
lti
osp
ssc
##qcd
##85
##aturation
nonmin
desire
motional
mllms
niels
coloured
pursued
tetrahedron
sparsi
codecs
tikhonov
jona
##olo
clt
abdominal
imping
##avin
ulam
tensorial
neurological
fractures
polymerization
milliseconds
lqr
tesla
subpopulations
3m
hos
pra
apache
facto
thermop
backdo
epi
##shore
capacitive
sensible
adiabatically
graduate
steklov
bw
lsm
snia
##elic
ascribed
mats
traverse
lazy
brute
expander
cryptosystem
cavitation
underestimate
trojan
trilayer
bore
bord
mz
##induc
##atting
##elles
accidents
typing
normative
parallelizable
marc
fflo
augmentations
isocurv
catastrophe
kill
ment
nucl
##hor
##mor
##oule
datac
escal
ionospheric
constructible
buried
enterprises
drifting
electroencephalography
gbm
jy
##nan
##face
##93
canada
##phen
accident
optimise
thereafter
113
probabilistically
predetermined
optomechanics
mismatched
anchored
html
alkaline
uncontrolled
noticed
coagulation
##fet
##pec
staff
##anten
langmu
weakened
alphab
nanob
specifies
macros
dla
textsf
##inio
##2seq
subvariety
passivity
precessing
langmuir
oi
##rack
weinstein
##dies
##ported
invoke
##ropolar
##uclei
oscillate
specialize
doubl
conformity
benjam
obscuration
anonymization
unlock
osmotic
cultures
magnetotransport
breadth
cca
f0
ju
mcd
##zh
##pf
focs
transitivity
##egaard
extractors
ppo
deduction
debates
entertain
wfc
planetesimal
oblate
untrusted
jav
sail
##lot
stenc
##ogel
realizability
sizeable
intervening
mrc
prevented
telecommunication
reentrant
mckean
##ogonal
scott
biodi
exponentials
denial
overlapped
myri
nickelates
tachyon
mises
nist
pz
isogen
##pering
##ria
##rization
asv
##ado
##istence
##under
needing
broaden
inverting
kinematically
epithelial
dementi
127
nanopore
doubled
pacs
duplication
ultrametric
dere
##analytic
##aser
adherence
algorithmically
homolog
speeding
miller
panor
##processed
pnictide
polydisper
dexterous
bourgain
ty
##91
##eron
##amps
intend
comparably
approximants
confident
requested
normalised
lasinio
coordinating
inert
pythia
multiphoton
sagitt
niobium
hippoc
isocurvature
ztf
##aa
##92
##gram
##tier
rewe
##abo
une
135
connectome
radicals
stranded
##echnology
enthalpy
cater
ik
nk
rss
tether
weigh
offensive
thirdly
##uthor
beamformer
arcsecond
tetrahedra
abruptly
##steretic
baker
dss
gpr
gga
intercept
specular
traded
cmc
linesh
came
subtasks
incurring
submissions
biofil
perseus
bric
keld
passively
spectropolar
##luded
mapreduce
homo
promotion
swin
majorization
pools
banking
molyb
inaccuracies
provisioning
disproportion
biodiversity
aside
##mf
##mos
coils
nonin
elder
subword
spinodal
hyperbol
homes
ellipse
safer
expanders
congested
foregrounds
kirill
racing
uranium
rice
rhom
vill
##atable
sts
##lygin
blank
implementable
horava
##kenstein
valleys
keldysh
lant
##tons
##hand
coq
productive
bloom
standpoint
interpolated
gaud
misc
dealt
mrk
ferroelectricity
stereotyp
obviously
unobservable
housing
320
aoi
##uper
muonic
groundwork
hops
thirty
walkers
donors
octon
appreciable
##scribed
disambiguation
ders
nis
pear
rbm
##faction
##ained
##istant
collects
##ometre
schatten
helped
harms
microphones
antibody
teff
ortho
immob
harvest
xrd
awgn
pierre
prisoner
hler
hmc
kicks
r1
vil
vein
##nt
##ala
##sig
spdes
generalisations
cyan
slater
attacking
eco
announced
chaplygin
quantifiers
inverses
assertions
metabolism
bardeen
photoevaporation
kirillov
spider
##idences
trimer
unob
leh
demonstrator
responding
gaming
omics
impercepti
degrading
journey
contingent
malignant
080
ki
ssm
tear
wo
##iance
##aga
dates
smir
understandable
stepwise
transmittance
situational
radically
portability
dropped
multipolar
mentions
democratic
##quadratic
stirling
negotiation
3rd
pta
wig
##base
##94
stron
##ramolecular
mice
micromet
edwards
cygn
##sheet
tank
##cap
##76
isac
underlies
certainly
pm2
essay
immisc
perpet
shallower
coalescing
misspecified
wrapped
pillars
genotype
tournament
##iman
##ota
sha
stratum
manager
corrects
carp
curvaton
pulsating
comprehend
##101
vibronic
0001
faithfulness
extrapolations
undertake
assertion
hebbian
5m
fear
kamiok
mbs
##lob
unary
hysteretic
edd
ionised
mesa
synchronizing
icosa
plateaus
##2o7
microcavities
kicked
nutrient
centrifugal
##150
stef
##associ
deskt
colim
catac
reversals
programmed
pgl
darwin
elicit
imprints
polylogarithmic
deblurring
jensen
kat
pomer
##ll
##olith
enic
##aluable
heegaard
invaluable
longrightarrow
superconformal
frac12
pathfinder
permitting
guideline
owner
surprise
predecess
quaternions
threaded
alphabets
##onet
##utron
detuned
reflector
unsuitable
complicates
nematicity
metastability
unidentified
sipms
refractory
staircase
strontium
cau
##tan
##acu
fines
abl
liber
idle
blended
crank
slides
mediate
distinctly
transcripts
favourable
rearrangements
gini
sss
parkinson
approval
evade
brst
accelerometer
grant
005
divisibility
mismatches
firewall
extracellular
tolman
krein
subsample
myriad
bz
nerv
##iten
bekenstein
##aining
##roups
multispectral
preprint
ifs
semin
galact
widom
risc
fills
seeding
zhu
parser
mandel
regeneration
ozone
deception
agreements
nielsen
dementia
sagittarius
dan
gsp
##uki
alco
print
subexponential
esr
calog
##rossing
coupler
viscosities
msps
knotted
280
expository
favoring
tfrac
seq2seq
rerank
distilled
lec
##arium
##eworth
noting
diagnoses
scanners
precoder
2o
cave
e1
##prot
magnesium
vii
microf
cooperativity
joins
featured
dfa
terrains
derm
tong
wrink
##atching
forall
stall
criti
serendi
focussing
##okh
negatives
doug
##rington
constituting
mno
##manifolds
inserting
insertions
appeal
declining
judicious
myocardial
serendip
wandering
clone
adams
elm
semiring
utilise
##variant
##pcs
pbpb
conjunctive
csps
asteroseismology
confluent
eliash
thermopower
catacly
calogero
cma
ez
lod
##mt
atypical
ack
symmetrically
endemic
envis
selfadjoint
passengers
subsequences
cops
bilingual
authorities
conversions
melody
mrna
sublattices
detachment
rectifiable
semimarting
eternal
eliashberg
1x
eus
j2
xml
##with
parse
##ista
mapf
##indler
hyperuniform
harris
quasis
immig
petrov
##gmund
supervisory
withdrawn
boch
nad
##deg
##function
whom
spain
apple
##ogens
clas
interc
scor
peric
accidental
aged
gauges
ageing
ignor
qcp
quadruple
zygmund
##dl
##dps
##rank
##84
albert
##leson
optimising
monadic
globe
singularly
##smic
silent
144
##heim
noncoll
multivariable
settles
departures
occlusions
volunteers
microswimmers
frenkel
o3
ry
rend
sak
siv
##np
thi
##arallel
mega
mann
##wara
curvilinear
inverters
reversing
america
empower
snippets
sporadic
cygnus
050
lx
antiv
stew
propositions
becs
homoclinic
helic
postulated
polyst
pseudoc
ucb
homogenized
mandatory
elasto
beauti
cataclysmic
ues
##rators
nanodi
magnetor
simplifications
doctors
annotating
doubt
competence
isolating
nanophotonics
lightcurves
quasistatic
aub
c3
cure
venti
##inet
##isk
pruned
infra
radiating
promo
hybridized
deforming
002
dissert
slabs
asteroseismic
jefferson
mobilenet
redesign
a1
aic
eil
nud
##tism
##real
##imum
aspherical
##formed
##ysm
discord
superpar
openmp
pathogen
retro
mcts
nio
undersampled
silicene
steinberg
compilers
voxels
dichalcogenide
cloaking
subtypes
herbig
erosita
aq
##maps
accord
collagen
localizations
revol
participatory
legis
ppb
##omplete
cnf
calorimeters
photodiod
pamela
pupil
seesaw
lanthan
cel
cim
mart
vas
vig
##ael
##olyn
eda
parallels
##ositive
midplane
admissibility
impairment
symmetrized
subproblem
unauthor
conferences
bjork
kantorov
superstring
smirnov
4th
dsp
dbi
mech
shaf
enig
multiresolution
radion
sofic
swelling
summands
returning
hopfield
melts
rewiring
tng
1g
dsm
jahn
qt
##outh
agend
consor
##ubic
transmits
117
entangling
recommending
competitions
mathematicians
cohesion
pseudorandom
unintended
moisture
lanes
##hyd
##68
##onents
##atrices
##stenberg
fee
distributing
depict
homogeneously
vo2
thoughts
terti
deductive
suspected
touching
administration
subdiffusion
hotspots
kummer
mysterious
parasitic
a2
pk
srs
wsi
stakes
pls
tempering
endoscopic
webp
bosonization
identifiers
disturbed
federal
cheaper
##rafting
exemplary
crashes
hallucination
roche
pomdp
recruitment
molybden
douglas
2t
bold
ebl
ges
rated
vee
seif
##exchange
natal
labour
260
ambipolar
hurric
fsr
hourly
sexual
diminishes
detached
forensics
dewitt
securely
bjorken
asian
ict
ports
sull
vent
phd
powering
formulates
retrog
integrand
src
synthesizes
1986
quasicrystals
delineate
dating
gk
hack
hls
lite
mys
##914
##orily
nex
shortening
cancers
monoton
concentrates
multicore
kaons
apertures
artinian
peptides
contradictory
p2
##uel
stern
##embr
##ectal
datalog
selector
##aug
spinal
soi
photore
ern
doesn
ensembling
thirring
baryogenesis
interferences
magma
solvents
resembl
registers
equidistant
oblig
cesium
vendors
4m
aka
lbm
nirc
##v3
asz
contra
decryp
superdiff
radiatively
reducibility
carleson
squark
rovi
purification
hypo
earths
browsing
eukary
neurod
nicely
##vanishing
sellers
diversified
polydisperse
stefan
molybdenum
din
gast
andr
spp
spear
disinformation
##agle
subharmonic
##ificant
##ibration
sma
minimality
practic
employees
dopants
nuv
pronunciation
responds
photodissociation
polycyclic
teleparallel
denominator
nanodiamond
jc
wonder
##pace
##gt
ash
spall
##osin
nonvanishing
emittance
binaural
slim
microorgan
##feaso
prioritization
dags
habitat
photodetector
iwas
deterioration
specimen
rethinking
tddft
uq
vad
##lich
##wer
##odels
defer
sug
##agi
acm
seps
larkin
furstenberg
gla
crises
tritium
turbines
synchronize
migrate
ubiquity
bursty
accommodating
prioritized
aliasing
conceived
administrative
sulliv
cables
dk
hay
pumps
##ticul
aband
smar
##pta
geor
biharmonic
##asiewicz
##te2
myst
enriching
fulfilling
perihelion
dissertation
averse
uwb
##acular
##rati
paras
##the
acou
additions
shortcoming
##onomies
barely
inspect
synchronisation
238
biomass
octahedral
implantation
criminal
kilonova
mord
##downs
amper
insign
##ugged
lux
suddenly
forget
arterial
gadg
nervous
seifert
peng
splic
##eur
anion
coevolution
bass
subsi
smoking
caputo
uncou
exactness
ultrast
158
116
macs
pcm
circuitry
subtracted
sustaining
adequacy
skeletal
annihilations
extrapolating
shooting
desktop
kantorovich
qquad
wp
##adus
unmeas
basket
inclinations
noteworth
##matical
longitude
caustic
foil
chromosome
drying
subdomains
nonmonotonic
pseudoconvex
reweighting
070
##had
##ece
oversight
radiographs
ava
interfere
129
sensed
114
footing
nanopores
interlac
williams
mckay
cig
deng
eve
lake
nlu
qe
mood
decorrelation
protective
entrance
devising
labs
readability
cohorts
##species
isochrones
kitti
lstms
unfolded
whistler
galactocentric
retrograde
dyc
##uma
solub
trailing
oscillates
microcont
customization
tending
lemmas
##rupted
disciplinary
satisfactorily
bypassing
leadership
antimatter
quandles
geostrophic
kauffman
immiscible
unauthorized
hsc
##itic
##rb
##fiable
apol
rectified
muller
subrou
mems
nodule
integrations
projectors
icy
270
electroencephalog
lexicographic
debiasing
eilenberg
mystery
##vr
##orses
extrema
cough
entre
feeds
redshifted
morphing
colorable
vlm
polaritonic
expressivity
naively
wavepacket
nul
##77
fortran
##theta
smash
regularizers
vela
haas
2deg
millimetre
cyclegan
nlos
##ieu
tessellation
tutte
##ocardi
questionnaire
tertiary
noteworthy
iou
##sd
##actively
chances
poyn
multiverse
motile
##objective
##ibilities
##ounkov
conclusive
separator
gaugino
solidification
realistically
casting
dmi
175
percenti
unexpl
hawc
terminating
respondents
kaczm
egg
racial
##fp
##ffler
syk
paraxial
arb
collide
gliom
brats
summing
teleg
bitrate
excludes
##ispeech
unmixing
favoured
tachyonic
imitate
alcohol
1p
dog
j18
msp
p4
##69
stagn
##ird
##utativity
shi
##ersen
discretely
corrup
anytime
sliced
offsp
letting
telem
sieve
##ocaloric
laborious
intruder
alteration
lexicon
microtubule
jay
selling
v3
##rants
##atal
parents
##oyal
slows
##oxy
acquisitions
thomson
deposit
patents
sinkhorn
arrhyth
kaczmarz
bsm
cra
gard
gumb
nyi
##projective
##ergy
emulating
bandpass
offshore
##force
oppos
ethanol
mgii
utmost
heliocentric
catalysts
photomultipliers
sandwiched
benzene
fec
hest
piano
##ptional
##gular
coms
cometary
perplex
meticul
discreteness
handover
photoion
microlocal
wav2vec
##ecoin
privileged
arous
dcs
eur
qkd
##kinetic
##urer
##asm
bears
comply
shub
chile
clips
compartments
analyst
blas
bi2se3
crude
adapter
hypert
expansive
recurrences
competitiveness
ecm
229
sfrs
parametrize
ontological
segregated
hairy
antineutrinos
pushd
okounkov
dunkl
##olynomial
gumbel
ej
##list
extensi
amid
geod
smallness
crosslink
mrf
queuing
ddos
pollut
leaderboard
mandarin
wavenumbers
hjb
mahler
discharges
sigmoid
weinberg
8x
bids
iin
##verty
poverty
formidable
concur
tunes
##afa
splatting
##efel
diagnosed
mobilities
midrap
foams
pnp
prolog
tetraquark
isometrically
pqcd
glitches
angiography
counterintuitive
2a
daughter
ether
##zan
##ulin
foraging
clones
operative
##ropically
glm
##ediatric
normalisation
##tivation
falsi
ptas
dielectrics
teaming
sublimation
supplies
microtubules
hydrocarbon
furnish
pancre
nonexistence
poynting
oe
##length
##igo
##aby
strat
nonco
particulate
##rolling
quantizer
connective
laes
thematic
ancestral
insignificant
pushdown
dovich
ope
##msun
cori
underlie
superexchange
electrol
effector
bioc
consisted
permis
cooperatively
justice
unveils
firmly
culmin
wfc3
dance
mote
##cg
##orbit
##older
finitary
##vester
cord
dynamos
superspace
funds
recurring
readings
equivariance
cbfs
illuminate
unveiled
neurodegener
spallation
bkt
dang
lending
##eds
prune
delves
prize
antipar
artists
damaged
diffusi
multidis
attenuated
gdpr
synergies
cholesky
sullivan
cil
rindler
wz
##star
exha
nef
unfor
willmore
conducts
residually
solitonic
vlba
destinations
erdos
sticky
omnid
resemblance
dct
isra
isomers
dijet
ade
##agnets
##luid
anyon
##ixel
polarizable
sinks
determinism
subgrid
hotter
stiefel
sentiments
panels
showcases
palind
bisection
ultralow
excursion
gossip
announc
elderly
2f
b0
##veu
quart
genera
nonun
manages
defensive
radiomics
deepest
researched
naturalistic
##omorphically
adjunction
pbw
supersingular
ppg
ssa
shrinks
geographically
enzymes
brazilian
manganites
finesse
bochner
rendez
midrapidity
icd
nester
voy
wn
##cast
##uge
##63
neveu
basics
arena
selen
artistic
simplistic
revise
triviality
flags
succeeds
solenoid
zo
##kins
androm
##akis
ilp
discovers
colonies
monodisperse
overdensity
deadline
timestep
hydrocarbons
reperto
reverberant
kamiokande
doses
keller
pess
yes
##qc
##term
##utch
imbh
pahs
infimum
demaz
interactively
##tinuous
backbon
trips
occluded
pcr
003
oldest
flavours
##twisted
deletions
anharmonicity
disadvantage
reanalysis
hypernuclei
cruise
prestellar
meridional
demazure
7b
jl
mts
verm
##iavin
##graphs
inven
anxi
##dium
##ocated
strich
larmor
posture
heterodyne
concentrating
synthetically
residents
implanted
vibrating
imbalances
zhou
auroral
yeast
macromolecules
##2cu3o
aiding
mitt
##iner
##edal
##etti
##acities
##imally
##ductive
contest
equational
##echt
##ongru
discer
discarded
underw
archae
factorisation
trackers
suspicious
joined
interconnections
regressor
malliavin
therapies
offspring
strichartz
3k
bess
kend
m33
##sat
##vla
stressed
spending
chime
repurp
##racy
carleman
proficiency
chemo
reviewers
palm
intercalated
reparameter
beautiful
mordell
fet
j16
s0
##rator
##ateness
seidel
##encer
motive
exploding
roberta
dozens
shortage
insert
microchannel
subgradient
strike
tendencies
splitter
interventional
noncommutativity
saturate
obscure
weekly
nonsymmetric
##atrick
borrowing
semiflexible
oversampling
noncentrosymmetric
javas
fug
kf
wors
##xb
##olit
##places
heus
##tilinear
##ixs
delve
##yman
continua
autism
thermalized
##ographically
meso
lyrics
messaging
referenced
replicator
incompressibility
seeded
evaporating
intriguingly
sandp
outlining
shuffling
memorization
levitated
##induced
multidisciplinary
850
fans
grib
wins
wett
##arming
##emia
exom
acl
torelli
closes
streamer
nanoanten
economically
compensating
##arctic
nerf
overestimated
sedimentation
revival
forums
unsatisfactory
lets
lumped
mct
##vous
antin
comon
##rik
corrector
photosynthetic
minimising
backed
relatedness
sato
statically
whitehead
subtracting
##khin
antarctic
blurring
consortium
javascript
avi
liv
sizing
##nf
##78
##sile
alon
dij
recap
multiobjective
dozen
textbook
bigra
abstractive
customizable
nirenberg
enlarge
extrater
occasionally
district
b1
cemp
mose
ocs
stit
tann
wse
##isub
ald
blends
gamow
retard
drell
tumble
ocr
##orthogonal
transcriptional
librispeech
polluted
interconnects
cloak
regressors
sylvester
epilep
gentle
anxiety
densi
eer
fh
fon
hrt
tad
emg
decarbon
outso
hereafter
achievability
harsh
turaev
gai
vortical
235
staining
michael
memristors
manufacturers
seldom
2c
oort
tai
yig
##fem
gravities
secant
schematic
##iregular
orbiter
mimetic
switchable
duff
ruo
grammatical
linguistics
cbct
palatin
nanomaterials
smeared
coercivity
perfusion
adatoms
mackey
rendezvous
craft
fbs
fuses
##chmidt
cook
finely
dece
spectacular
##iley
heap
automl
exponenti
specialists
##fficiencies
##2018
proportionally
rfi
cifar10
nfw
noticeably
##aturated
wildfire
mellin
nucleotide
##anine
stake
##chke
grazing
dimensionally
workspace
crater
epigen
merges
martian
waters
##htein
laalo3
centimeter
streamlined
omnidirectional
kendall
gribov
eagle
fsi
vand
##cin
##aver
##valu
##roken
beilin
unordered
##akh
infant
nanometers
rotators
1200
##pca
huber
friendship
scintillating
songs
hotspot
arrhenius
subshifts
ophthal
dendritic
backbones
beilinson
bbhs
bunching
ccc
ei
kib
##iances
##ja
##vae
isotherm
arres
heun
circulating
earning
modulates
spheroid
millen
marri
mathematica
##bodies
contamin
##ysiological
retinopathy
optoelectronics
profitability
coastal
palatini
rocks
##acit
##otti
unsc
coadjoint
regressive
superhe
##speech
edits
slender
holstein
photoinduced
##2017
violence
inflection
monoclinic
overestimate
550
braces
lur
msc
##mings
reweighted
soluble
plume
mathieu
erm
thermometry
##spaces
literacy
cdma
consumes
patchy
dsl
oceanic
bisimulation
tokamak
agenda
uncoupled
heusler
bms
dz
kon
lk
s4
residence
enroll
redistrib
defending
semir
##ulde
transitioning
individualized
histology
augments
submodules
buses
barycenter
barycentric
coercive
unmeasured
irac
ky
lder
xm
##uity
##rane
##fi
##vili
##itas
alk
compaction
magnonic
##lerosis
amplifying
quadrics
##102
stopped
multifac
ttf
##interpret
genuin
poisoned
hydrophilic
quasiconformal
conspir
ist
lends
##kar
inhab
shg
neel
coo
##iest
recre
##ipt
cosets
weaken
county
subsch
centralizer
senses
granger
fitz
positronium
miniature
prioritizing
hulls
dictates
guessing
diminished
unraveling
heston
##isubharmonic
nms
##my
##gle
##article
##sted
##owers
formality
schre
confine
minimise
synapse
##scan
communicated
soccer
unitarily
principally
arithmetical
tapered
multifunctional
kilometre
avatar
iwasawa
extraterrestrial
750
lz
##01
##bel
##knot
##amine
reion
alc
intrad
leffler
subreg
linearities
##ublish
copolymer
macroscopically
kleinian
krig
athermal
undetect
softer
mittag
multifaceted
kun
tantal
##omar
##sign
oral
corn
declines
starlight
mixes
factored
radioactivity
##umino
pinch
dividend
##ahori
cfts
sufficiency
terminates
quarantine
compositionality
antagon
spiked
ascending
rogers
quandle
davis
bicep2
060
qq
tds
wsis
##atsu
##tering
enst
##opause
optional
demagneti
quantisation
openness
breit
magnetocaloric
sr2
router
nnlo
nilpot
coalitions
1985
fdtd
gmres
boards
incorrectly
altru
multistage
athena
uhecr
nonextensive
serendipitous
gsm
kem
mail
pon
zumino
##cat
##elov
##ffs
nodules
12c
magnetised
colorectal
myopic
dcase
landauer
fallback
unbroken
koz
scrutiny
railway
fingers
prosth
heritage
gym
trough
##ike
exert
clay
bike
protects
logically
maximise
factories
farms
modulational
rationals
substantiate
coprime
poroelastic
hij
jovian
squeeze
indistinguishability
phosphorene
unicode
plurisubharmonic
hessenberg
exfoliated
syzygies
depolarization
6x
fdm
kri
tda
vcs
##oris
forn
##unes
timeline
flatter
##ovari
excels
hyperm
keyph
utilised
omni
bulges
counteract
campus
145
owl
missingness
tracial
##ethylene
irregularly
planted
tentatively
nickelate
interconnect
iwahori
delineation
##celeb
paraferm
bun
wess
anions
##stell
stt
##ello
##ounded
ordin
kinetically
concluding
franc
nij
cnts
taxi
inquiry
oppositely
andromeda
fms
fung
sul
##imoto
##pert
reorder
leav
assay
cran
ller
extensional
##rophot
pbe
circumgalactic
longitudinally
hexagon
watermarks
##ooter
kostant
pencils
cholester
electroencephalogram
coriolis
bk
hong
rips
##1s
##inters
proactively
reiten
alm
poise
empt
snake
##bruch
asymmetrical
thickening
gluino
fracton
subtask
persona
cvar
penetrating
##iscover
calorimetry
exemplar
viscoelasticity
precipit
upto
tqft
interfacing
hofstad
solubility
020
4h
ness
##ascale
##employ
parap
openc
newer
##ensitivity
pathologists
##cepting
2500
doctor
ethn
novo
preventive
emails
hirze
arthur
cyberattacks
pcc
ytt
##ogging
metac
metap
clad
plural
upwind
trail
##ographical
quadric
wright
illness
fox
hcp
pursuing
illuminating
duplicate
genuinely
kriging
1h
kov
mips
njl
##iments
neat
leon
moy
outages
hyperp
periodogram
existed
stepsize
indivis
questionable
132
cooperators
invert
discretizing
singleton
inefficiencies
footprints
garnet
pacific
blurred
centauri
##assembly
occultation
lewis
leavitt
hirzebruch
bach
dps
kor
nights
sake
dips
geography
##ports
tripar
cyto
msd
analogously
bluet
pooled
inflamm
elucidates
periastron
fcn
ripple
smearing
supercomputer
expenditure
backdoors
dyck
cts
fulde
hens
horses
iqa
rack
intimate
##anch
atrial
abuse
magnus
restart
aggregator
vartheta
stray
homotopic
tangle
historic
dsa
tactics
##hammer
baby
imprinted
chunk
inheritance
oncology
springs
##sigma
hq
rixs
proces
clover
coch
extractive
subf
##icip
preheating
capill
10k
scatterer
irreg
##reading
partite
horizont
marketplace
attentions
chirped
coalescent
krull
empowering
reconciliation
partnership
endeavor
transporting
subnetworks
heterojunction
homologous
##stellens
2l
hoh
qam
sbm
yso
##wan
##71
throw
##ectra
rests
chered
clark
infil
##nium
uparrow
electronically
programmer
fulleren
##prene
counterions
##ycl
nlte
##ospace
substituting
ahlf
##processor
3872
ultrafil
novice
editors
whispering
fullerenes
ahlfors
dock
hunting
nes
wage
##atural
##orms
dix
unemploy
spinon
10x
carath
crf
##arged
swiss
cloudy
copying
pipel
screw
violet
terminate
cobordisms
afterglows
nacl
miniaturized
zenith
israel
bluetooth
030
5k
g0
riv
tul
##qmd
export
##gev
corrosion
affordance
lengthy
cmd
hahn
instruc
msr
discriminators
anneal
electrostatics
medication
photocon
hazardous
gutz
##foil
mammalian
semidirect
punishment
microservices
antigen
derever
nesterov
##ublished
horizontally
014
dac
fdi
psc
roth
ssh
uchi
z2
##icron
imbhs
meyer
curi
radios
crossbar
initialize
microarray
everyone
magnetos
planarity
mcl
proceeding
profoundly
digitized
fringes
entreprene
cherednik
p1
rtl
sant
trot
yz
##oone
inch
conway
##separable
anywhere
heteroclinic
stringy
senior
leds
ghosts
ws2
photovoltaics
advertisers
cacu
telecommunications
exacerbated
keypoint
chalcogenide
municip
fk
ux
##enhu
##emics
##ige
spd
resurg
club
nozz
spectrophot
agi
extendable
affili
retrans
miri
mutant
trigonal
complicate
identifier
1988
egocentric
embodiment
crustal
symmetrization
lubrication
stoichiometry
cramer
randall
cue
cbs
fift
##bell
wei
suic
coins
fe3
miners
##ovo
biosign
serp
##ridge
factoring
temporarily
j07
stained
zfc
corrugated
aubry
fifteen
dumb
fhe
ive
joule
koh
nos
tast
tape
##iper
##mg
##lb
nep
##aped
##duction
abbre
galex
visu
evenly
faceted
##architect
informatics
iota
caches
disagree
unlocking
verifier
agreed
flames
entertainment
ampere
underwent
kibble
hofstadter
irregularities
##group
altitudes
sevent
pour
elt
starob
soap
sequel
ille
quadcop
summarise
quasiclassical
rhythms
willingness
isobaric
##enfest
microorganisms
arousal
jin
##ais
##tle
##uil
##uille
##ea
##zn
##nis
byte
usd
##opus
adhere
deepen
lifesp
symp
225
synthesizer
dgp
1983
equilibrated
undecidability
arrows
##stepping
stencil
fen
hump
nest
px
pediatric
sft
tse
##3c
staging
##igt
##umo
##agram
aden
expressible
heav
blob
carina
deleting
quantize
synoptic
adaption
omitted
antibiotic
suites
substances
##structed
streamlines
malaria
unbinding
leaks
harmonically
settled
russ
unpublished
ehrenfest
##ijn
##willer
impinging
doublets
poiseuille
gutzwiller
hx
jh
tk
atari
##agons
multiset
##epr
209
crit
advis
skull
holder
##isotropic
##orespon
##factors
ceramic
justifies
eclipses
epileptic
borders
tych
##fc
shine
orm
helices
darkening
transmon
admix
nowhere
circumven
dominantly
multiplying
voxceleb
##ocytes
ein
wse2
##yan
##eca
reti
resta
unpar
##epti
indones
producers
##ubbles
weakest
microph
1550
gaits
dispersionless
sounding
supersol
bcg
kagra
molten
overlooking
aluminium
1405
2x2
wrapping
lightcurve
mazur
##olinium
neurodegenerative
verma
650
bnn
fv
kard
listing
pmm
tale
##eau
##nb
##men
##orsion
isi
aln
spons
colomb
realise
radiography
algebro
##psy
uniformization
hydrogenated
vlc
anticipation
incompatibility
resheti
reshaping
onsite
histopathological
shortcuts
jiang
bing
ems
##oop
##onant
##enh
##ecs
clicks
opacities
relig
exped
##egen
tasked
mixup
subsonic
harn
beneath
nmpc
unfamil
##ascul
champ
tourism
cepstr
consolidation
##hydrogen
miniboone
warehouse
contaminants
ophi
##inent
reusing
##conv
##oyd
textured
insider
171
activate
fabricating
mnbi
leptogenesis
youth
t2k
interdependence
ehrhart
subdiffusive
coherences
polyelectrolyte
wettability
reshetikhin
nation
##card
##san
##ortic
##verg
entered
##allow
##assa
recourse
##illar
backstepping
homoth
harish
surveying
##reshold
substance
attributable
encouraged
authenticity
nascent
##gpp
kilometer
hmms
dichotom
stakeholder
hirsch
berezinskii
##represented
electrocardiogram
5s
ipt
zs
##qmc
##cnn
##tec
##lr
stuck
spde
superv
verb
##ostasis
inductively
slosh
functionalization
linkages
##ophene
visco
stabilizers
mgb
migrating
##ethyl
ruelle
deposits
transpose
supercomputers
uhecrs
intraday
330
pant
ink
##atever
whatever
##uded
overton
glas
laz
blockage
magnetospheres
fractionation
scientist
004
baire
gateway
rsa
manageable
criticism
pioneer
contributor
pebble
buffers
empathy
sculpt
weld
##74
weber
chor
nevan
levin
##ews
decimation
requis
rotates
roe
formalizing
peaking
striped
bottle
contextuality
mosqu
admitted
saturating
nbn
##osync
clipping
flattened
subdominant
keypoints
nonminimal
jaynes
##olitan
epigenetic
tripartite
h1
kines
kashi
nin
rrt
zi
unknot
demixing
centralities
reacting
##2013
lookup
claude
truncations
pushes
coarser
gadolinium
quasiconvex
deceptive
interfaced
isotopologues
yttrium
starobinsky
nevanlin
2b
bron
bai
laughlin
nec
raster
##cam
stu
reis
enanti
##opulation
smol
commutes
topographic
bijections
feedbacks
organisations
microscopically
intelligently
##flows
decentralization
knud
football
plasmonics
instantaneously
struggles
##opsy
##attle
coarsely
encapsulation
ccsd
stanford
flooding
mexico
glauc
abbrevi
nevanlinna
bem
dob
lgr
liveness
##uin
reexam
spray
##osites
##ayama
poised
obtainable
linearised
1024
carcin
antid
119
mmd
##gcn
pdr
ldos
heuristically
cummings
arctic
resistor
nanorods
eavesdroppers
subhaloes
maritime
trapezoidal
undetectable
sloshing
lined
uda
##dal
##uzz
##kog
##glass
##chromatic
rectilinear
approximable
minimisation
remember
restruct
servo
intersects
##oha
dissolved
accumulating
perceptually
rocket
fifty
symplect
throat
petersson
hashtags
knudsen
nelson
rcd
vafa
wired
zoo
##ighth
##ynski
grades
underper
scha
populate
refact
issued
extremum
informing
##hara
nanoshe
lambert
##ermann
1982
politics
sasakian
chunks
sri
##zel
proph
##pls
parac
genres
##ramm
discarding
randomised
thermostat
mediating
boiling
swept
lll
electrodynamic
isotonic
taught
constituted
traceability
homotopical
##onese
tangles
backwards
impede
hippar
multifractality
instructors
idiosync
overshoot
abandon
unfamiliar
ecs
fountain
qb
sj
##tech
##v1
alarms
##etwe
scf
coaxial
robber
anyonic
phenix
beaming
turk
voic
aerogel
ucn
seasons
upsampling
rkky
sturmian
transceivers
acknowledged
bargmann
cytoskeleton
##2te3
sundrum
mosquito
3gpp
cin
feller
mam
sro
sinc
t5
tsc
zir
##sv
explic
bez
paragraph
acet
arrest
plenty
superst
integrative
centuries
mediators
attacked
reproductive
msa
ramifications
quadrilateral
arrives
rsg
painting
bogom
multiphysics
##ialgebra
advocated
icosahedral
dereverberation
012
f2
fss
hans
pist
x10
##f2
##bound
##urling
##tinel
finder
sext
corrid
mathtt
veritas
amyl
geol
weakens
funded
feeder
##2019
##kovich
ruin
shielded
##pinski
enzymatic
reorganization
microbiome
##uspidal
##enhuis
dum
##03
##hop
##aters
##omain
cann
discard
##iba
consent
##ometrically
##atism
latencies
semeval
backup
counted
##ofrequency
##backs
electroproduction
thicker
airway
gluonic
bidders
lpv
##agerup
hindsight
wishes
intentionally
ovchin
distilling
passwords
subdwar
breaches
semirings
bac
iip
klo
nli
nski
yellow
##dh
##ylation
##urch
stft
coined
fees
amel
representability
quantizing
specializing
haagerup
##archy
summed
retrievals
copilot
looked
sdo
rarefied
##harov
suffered
regulates
friedman
sparql
linewidths
lapse
babar
scrambling
isogeny
unexplained
harnack
##odsky
aloha
contr
##ynth
subaddi
##berry
##conf
sourcing
pathogens
147
multicellular
bluer
##hausen
metropolitan
intentional
##urnal
foresee
ptychography
noncollinear
perplexity
restaur
asi
##dens
##fish
##how
##pel
isent
##osability
imath
##agraphs
##ader
platin
##istng
##egas
graphon
##roller
starbursts
bi2
append
zeroes
harbor
postulates
illustristng
gauging
blocklength
magnetometers
##ashing
summable
linac
dmc
microwaves
spanners
syntac
dilemmas
inspirals
scaffold
persuasion
embeddable
milestone
hug
uw
##rath
##tir
##ulent
rees
legs
desert
realisations
corrective
indiffer
gaussianities
13c
circumvents
talking
1981
aerospace
destroys
rescattering
vendor
##frame
vietoris
panoramic
ventilation
nulling
fornax
kashiwara
1b
vog
##math
rex
##usa
uninform
supercl
redox
loan
muk
polyph
##ashvili
icme
denoiser
015
kaplan
##breaking
##complex
revolutionary
paradoxes
capacitors
anonymized
anchors
surgeries
prosodic
lacs
##imentary
##emeister
succeeded
epilepsy
reidemeister
rides
##cences
##dv
##onen
##obl
collusion
couplers
##upp
1950
auroc
downarrow
word2vec
reinforcing
recommenders
trapp
midi
frontal
reconn
hermes
herd
occupying
frictionless
bsdes
10000
multilayered
middleware
sidew
##ranial
downloaded
digitization
stirring
tearing
sandpile
platinum
dans
ero
fare
xfel
##pant
##onals
##owicz
2030
##udied
banded
pulled
alternation
12co
adversely
cohomologies
voigt
##ocalization
listener
##uminescent
paradoxical
nicol
gersten
multiparticle
polymorphism
terror
emulsions
ventricular
dashboard
nanocomposites
paraphr
indivisible
bicon
cassi
cecoin
eic
j10
kids
exoskelet
##uts
dism
scl
simd
recession
##ideal
##onserv
sequent
nanol
enskog
gw150
morrey
besiii
##bury
decentralised
dpp
##persity
kuhn
meteorites
bruijn
bgk
tournaments
hindi
imperceptible
percentile
concurrence
gop
igr
xz
reused
beurling
##atile
nonhomogeneous
##ype
assays
polys
starrs
schramm
parameterised
##csecond
morphogenesis
cpd
dimerized
bona
sketched
threading
kirkp
castel
##2o4
symptom
giga
pillar
sierpinski
tasep
macroscale
pessim
dfs
hus
j19
mother
tib
yolov
zeld
##orum
inad
foref
##iga
##resent
shel
chore
##aching
prl
subfield
##ibre
laid
quarkonia
decodable
stabilisation
translationally
sentinel
svms
##hattan
nicer
disjunctive
avatars
gaudin
cytoplas
d1
qps
##ei
##mass
fork
metre
deleted
hyperedges
haze
denoting
crossovers
##pointing
cyclically
inaccuracy
punctures
disclose
capsules
collimation
dilatation
tablet
olya
acousto
enrollment
ovchinnikov
kirkpatrick
barium
cec
##quanti
##urek
escher
curtail
vera
mined
##atistics
creators
profitable
155
##ophores
dilations
salts
nanotechnology
competes
plugin
fulfills
##uscule
zelev
niche
korea
vuv
electrification
curiosity
lifespan
##asculature
1k
aero
aether
d4
mpa
pns
##eries
##utonom
##ifier
approved
seti
graham
manhattan
logging
separators
technologically
widefield
134
bolometers
chief
multicritical
pnc
counterfactuals
enclosing
arteries
replen
democracy
deepfakes
aerosols
korean
photorealistic
electroluminescence
conspiracy
gw150914
camb
##zip
thing
##tization
##imm
##imotor
performant
realtime
descending
defi
nucleonic
swaps
naming
heterogenous
electrod
nuances
cooperating
fuj
objectively
flagella
alleviated
ecliptic
titles
eavesdropping
multiparty
neckl
nagumo
deliberately
repertoire
enstrophy
hipparcos
eoss
rose
xp
##vectors
##onf
sciss
equalities
keying
successor
condense
sensorimotor
geq2
annotator
climbing
mistake
antiprotons
prismatic
fortunately
microresonator
lineshape
euso
unemployment
380
fom
hun
lend
ugc
zam
##can
##bd
##tio
##oman
provin
##oub
##ilog
spc
adelic
perfor
##actuated
##agner
photographs
biopsy
eddies
environmentally
engulf
organised
##skian
qualified
urn
232
biomim
replicates
irregularity
hopefully
cotorsion
atlantic
parametrised
ferrell
##script
listeners
emanating
040
bq
crafting
eht
fret
enard
sylow
incoherence
abnorm
##obi
photothermal
remed
hyperelastic
experimented
138
##neider
1400
dmt
pcf
treas
outermost
rooms
projectively
marginalized
##ebner
pickup
edition
tweezer
amelior
forefront
fets
moss
##initely
##rota
##reach
##unk
##adal
emery
gup
##brational
##apsed
ptf
nanoporous
heral
reconciling
presumed
nircam
spearman
##valued
schreier
nijenhuis
2q
ahe
cem
eo
lau
nim
##rho
##jee
steen
##association
##kson
invited
parameterizing
responsivity
responsiveness
profess
microscopes
inspecting
magnetisation
outflowing
occupations
echocardi
rsgs
distinctions
passivation
archetypal
melanoma
trotter
310
5x10
draft
ery
fade
gis
jj
##aid
##iticity
##3n
##2si
##arn
##ationarity
conception
incap
heeger
205
erbium
hereby
slr
ulx
swed
diagonals
histological
dissipativity
brightening
droop
groebner
supercuspidal
afforded
xeon
micromegas
deteriorate
unicast
chemotactic
ransom
kws
s3
sse
sgs
wagner
##enn
##enb
##alent
##arized
##ows
sct
grays
conserve
lime
archit
helly
brog
caustics
cmf
slowdown
demanded
fuels
disconn
spacer
gcm
oceans
deuterated
subtleties
1979
badly
meetings
biometrics
detrended
colimits
rovibrational
voyager
k0
lit
retwe
##uit
##ranov
##sar
##analysis
##image
##assen
seir
associativity
homfly
uncomp
conventions
hybrids
lagged
casual
beforehand
enabler
gcns
1984
cryostat
penetrate
subdivid
nh3
fatou
contradicts
sachs
adhering
interrelations
requisite
zelevinsky
broglie
fight
gq
gat
##rit
##ede
##getic
unac
extant
homodyne
##oka
definiteness
readiness
icu
nlg
ethylene
climatic
##beam
pandemics
##ebel
knight
sublevel
disaggregation
horsesho
trappist
dts
vms
##watch
ingaas
##arts
##itri
##imi
steric
beings
scars
arma
##yset
##aceous
##ensely
smb
productions
schemas
shortfall
queried
165
camassa
copolymers
##cox
##links
naz
court
jammer
gmrt
phantoms
empowers
slotted
vvv
gyroscope
##eprint
340
ats
ical
lys
qh
wg
##uates
##rn
##02
##lements
chase
sca
subband
temperley
mapper
crc
quadrang
elliptically
##fluor
rouge
exceeded
interdependencies
straggler
endeavors
dengue
extensibility
emptyset
iram
kras
lj
nur
ym
##mia
ants
als
##threshold
trin
intends
transac
undist
semit
##orphism
##dehy
adapters
cosmogenic
velocimetry
##icky
broadens
chaining
mss
berkovich
moran
rarefaction
1976
dysarth
transversality
transposition
##mno3
plagiar
miniaturization
christoff
microresonators
marriage
glaucoma
brou
gang
lich
qi
##73
strom
##sius
##ouad
##iration
shaw
univalent
##aryon
prefactor
radiofrequency
additively
endoscopy
slm
circadian
maslov
caff
satake
retrieves
competitor
degenerated
##kedastic
reciproc
minihal
affordances
overestimation
instantiation
instantiate
fgk
amyloid
hover
sage
tari
##aro
##arro
procur
al2o3
accepting
desynchron
subjectivity
##atoric
geos
defence
invented
elegans
rotator
retraction
wrist
anticipating
repeatability
painleve
seizures
cassini
##nuovo
kardar
castelnuovo
christoffel
xps
##hine
##pins
##world
##79
ofd
##elmann
##ecure
##photon
unans
recoll
accrete
assouad
##onde
raz
##ovis
periodicities
##lium
convention
frech
csv
personnel
rbc
xyz
physiology
harnessed
exhaustively
ripples
sparked
metaphor
volcanic
aviation
russell
ormander
reisner
2cu
aust
beng
dpc
fic
hoy
m4
qn
##cul
##iff
##ville
##ulis
disput
claw
genesis
presidential
assists
##bertian
generalist
approximability
laying
guo
subgap
voev
gevrey
damp
urqmd
neglects
pdm
herz
homeostasis
##orrelations
##oulder
habits
1978
workshops
magnetorotational
arrested
3g
arose
bich
cfs
xia
zurek
##uti
##riter
##odory
trec
recol
verlin
potent
maybe
edited
triply
openly
195
astrop
1600
connectionist
saito
discriminatory
kmt
sunlight
genealog
tableau
dimerization
overdensities
skeletons
fatal
##hyper
unaware
##orbital
##stellensatz
verlinde
7x
##util
informs
reserves
composable
shoulder
interrup
unocc
##atization
poi
plm
emits
coloss
conclusively
memes
validations
retrac
13co
mira
orthogonally
octave
semicirc
rewritten
palomar
bipedal
lacun
##yrene
subshift
dow
glow
kz
moc
pall
qg
##oling
##seek
##orkin
veronese
##ptons
semialgebra
biob
triad
categorizing
tee
camp
geq1
astrophysically
fidelities
chromium
ohm
roms
loschmidt
superluminous
spillover
microstates
smoluch
transactional
voevodsky
bds
koch
mog
ncc
qsl
##bler
emt
##ochond
advected
automates
hypercomplex
textbooks
skor
segre
elastically
mutants
polymorphic
srf
metaplectic
contractile
hirota
hbt
disprove
downscaling
intermediary
torsors
sherrington
##ranean
4s
cic
dcc
lfs
mend
##tm
##west
##roidal
##ims
conp
isp
isostatic
##ichia
plum
distort
opera
identifications
##cone
fluency
transmis
alternately
barab
##health
mtd
grasps
undersampling
repetitions
##expan
kuiper
instantiated
eigensol
polydispersity
longe
semimartingale
nozzle
retransmission
escherichia
gree
iax
##comp
##tsev
##east
##eliness
algaas
##tines
entit
radiological
utilises
harper
fluctuate
insect
odel
relief
damages
marang
mwa
yba2cu3o
recycled
nonautonom
bargaining
hurricane
circumventing
##dehyde
liz
ropes
##bg
isab
##ampl
##sek
##osal
coleman
workforce
characterisations
ifu
summand
notebooks
myers
nonconserv
salam
traceless
hdg
##ivalence
pilots
mitochond
underestimation
depicted
dolbe
gripper
critique
retardation
resurgence
isentropic
marangoni
nonautonomous
lmm
nsc
##dev
##vp
##odeling
##proof
matth
##ishi
blo
##orphisms
guarded
contextually
crepant
amplifies
pressur
##ylind
163
executes
sidebands
##ika
females
bottomonium
attentional
szemer
wsns
firmware
laminations
moyal
bumps
dess
icc
mso
nx
uph
wyn
##pic
anarchy
parkes
intramolecular
##epth
underrepresented
starsp
autop
heading
monic
maple
sync
lao
polyatomic
mesonic
006
echelle
saturable
clockwise
wsn
rhythmic
nordstrom
trimers
amalgamation
hungry
photoexcitation
dolbeault
ja
riss
##dac
##ortion
##enthal
debiased
##oct
##apacit
##ductivity
multivalued
infrequ
idf
secured
##ubble
drip
rotors
swir
cdms
rationalize
noncrossing
tsun
bangl
laced
democrati
microfluidics
lucas
safeguard
zakharov
geodetic
fomin
pps
sram
sarc
won
xilin
##rized
##resso
plc
speculation
schneider
resonating
breakout
astros
##heath
srg
diagonalizable
antiferromagnetically
subcarrier
ambitious
qpos
deteriorates
##untary
levitation
attracts
confluence
cytoskeletal
predecessor
cef
hiring
rts
ziv
inr
exascale
##tini
##thaul
cls
evoked
centroids
visibilities
squids
##energetic
squarefree
polymat
multimess
radars
hermiticity
unfavor
quadrant
adiabaticity
lotter
tokenization
alexnet
quiescence
cofib
axiomatization
arsenide
biofilm
rhombo
shafar
monotonous
eukaryotic
unfores
procurement
frechet
longevity
aig
cine
tec
tall
##mix
imb
dies
simpson
subj
workplace
##ished
ergs
uncomm
learnability
##ographies
cmds
pmf
pictor
fronthaul
##kernel
submit
chromosphere
lamellar
chapters
blowing
flyby
alumina
urllc
flawed
rasp
davies
excursions
tongue
scorp
polystyrene
glioma
colossal
smoluchowski
xilinx
caf
hunt
lions
zt
##odym
cher
##opard
interspecies
##plication
##estation
abo
outd
binned
massey
epim
##ields
subsumes
peeling
causation
microbl
deployable
distinguishability
outerplanar
025
interacted
colourings
transcriptions
helios
solenoidal
##associative
enigmatic
instructional
4g
5th
8b
hbox
ql
tz
##aire
##rong
##bcs
thumb
inscribed
alb
clue
adcs
arisen
emd
abrik
##arsh
sno
##atched
disperse
burdens
genericity
clearer
typicality
srru
myosin
imagine
conjugates
svs
threatening
tetrad
nematics
superposed
reformulating
nonconforming
friedrich
magellan
photocatalytic
dictate
hvac
ccsn
ultraluminous
assortativity
plagued
transports
precludes
##aboost
reranking
immigration
abrikosov
aortic
bends
bimetric
brink
cpa
pbs
sx
viter
##acry
stub
shen
ch4
church
trilinear
phoen
coproduct
##rosoph
amer
geop
physician
photog
beck
quasielastic
dmri
saved
authorization
quadratures
ssfr
ols
enriches
resiliency
intraband
spanner
accompany
impedes
pgd
muscles
siso
digitally
subdomain
zagier
portrait
slsne
densification
microphysics
steenrod
dj
dae
m5
mrt
spa
recal
transpl
deck
##illation
constancy
heii
##uba
invest
##gery
lynd
carbonaceous
congest
290
hc2
contracted
deadlock
##ulfide
bedt
##ajima
noninv
nanodiamonds
semialgebraic
hires
nii
roy
sick
uas
##pole
##election
retic
shooter
##ocial
##endum
workings
sok
washing
guest
conducive
interpreter
pubmed
##ceptive
reflectors
chemicals
exchangeability
thinner
##cienti
fractionalization
dlas
currencies
instrumented
coreset
watts
restores
umbr
##ysiology
harnesses
epistem
affinities
iodine
presheaves
exhaust
demagnetization
schauder
shafarevich
outdated
arak
cact
cerv
tcs
##arching
chic
##agues
accepts
clumping
##open
##atist
subthreshold
outreach
smgs
suprath
trivalent
##ymptotic
audios
cubature
pico
magnetostr
panda
##fe2as2
happening
ddot
sophistication
accommodated
wheeled
supervisor
questionnaires
pomeron
envisaged
telemetry
reordering
kane
tset
wals
##ias
##abrication
chose
clic
obvi
emc
abm
overarching
polder
broker
microv
spheroids
magnetostatic
milling
pdw
tumbling
arguing
plotted
surfactants
refrigerator
centaurus
toughness
arrhythmia
quartet
banglades
uncommon
c0
cafe
fso
gx
pell
##ahead
##nuclear
##atology
##chem
trisp
smm
##edicine
geom
behaving
photography
anyone
precomput
hyperedge
omp
appearances
##orescence
varrho
bilstm
daq
jaccard
occupies
blueprint
parametrizing
gyration
ultracool
gcr
rowhammer
deuterons
resistances
sidel
hourglass
justifying
multistability
foreseen
ventricle
lupus
##embrane
microcontroller
ransomware
gom
gsi
kbar
msm
mounting
sperm
xn
##lassi
##ychi
##arov
weap
isomeric
##amy
##ucks
##apole
unilateral
demodulation
curate
collateral
schiz
ers
ulxs
specialised
hapl
admittance
139
fractionalized
bigl
conductances
jacquet
mirroring
biomechanical
coexists
##beat
certify
taxa
happened
##oulos
divisions
talks
compromises
intractability
##personal
committed
resnet50
multistep
embryo
berezin
lsco
isabelle
multimessenger
ddm
gms
qf
##clic
##oline
isch
##amics
##amping
unan
eval
meerk
subun
preview
theorists
lightly
##etyl
sympath
##bius
espresso
texas
ramond
174
hydrogenation
beryl
##holder
##cribe
compensates
russia
notorious
earnings
cepstral
biomimetic
plagiarism
fench
lcm
sorts
overparameter
underactuated
##rosis
secrets
lately
biqu
##rased
channeling
deviating
##nett
mcg
mris
ssb
dissol
hurdle
inhibits
picked
parsers
lungs
articulatory
trimmed
kingdom
districts
crawling
undermine
nanosheets
piston
beryllium
bnns
sop
vg
##ardi
pluto
emulators
multiparameter
movable
underway
##ropes
galton
##tinuum
regularizations
quasit
mutational
routers
blown
venues
sweeps
credential
girard
nanoribbon
genotypes
decryption
grayscale
480
gue
tic
##cup
##tie
weis
##igs
##chen
trs
tracy
cochain
coder
irl
lawson
farther
154
##brs
cdt
candles
131
participated
saves
##gren
preth
zerni
bsde
autoregression
contemporaneous
inapplic
lubric
brick
corruptions
expedite
rhombohedral
walsh
aws
dce
grm
joy
tide
##ocular
imex
pert
sim3
##obacter
fe1
##eva
starless
20th
10m
##issance
ionising
faculty
rationales
streamers
penning
clarification
grover
talker
nanocrystalline
substitutional
seasonality
##peech
chords
nanodev
attractiveness
eruptive
brunn
1987a
hellinger
##conversion
admixture
vague
##ror
##gens
##alin
##orb
clothing
trell
adaboost
infancy
iia
rmf
vectorized
groundbreaking
barrel
microarchitect
flexural
customize
bhatt
plausibly
inhibited
revolutionizing
encountering
tenth
tells
storyt
zwicky
safeguarding
percolating
nanograv
zonotop
benjamini
tethered
quasisymmetric
telegraph
blaschke
hohenberg
horseshoe
krip
lps
mci
uhe
yosh
##pix
##gaps
##stant
incon
preprojective
ampt
spinel
deepseek
existent
ellips
164
##2014
dissipationless
daya
skilled
suffix
hofer
chapman
reconfig
calorimetric
##rafts
rubber
nystr
regenerating
macromolecular
1970s
hydrogels
subroutine
stagnation
ophthalm
meerkat
fenchel
zernike
p3
pce
pud
vow
xf
##env
sten
unpro
adoles
##anges
minds
appra
crb
fluent
valves
propaganda
competitively
##ophren
loadings
pss
misses
ppi
lookahead
approx0
unconf
bife
tangible
##rotational
meaningfully
ddpg
tessellations
steepening
advocates
warnings
glycer
victims
dragging
suzuki
wmt
rejecting
tsetlin
kripke
fide
l15
mav
uves
##titions
##raine
alam
##agr
quoted
##pherson
deconstr
decadal
surjectivity
prograde
thermost
rmt
quasiregular
publishers
hugging
cno
nominally
tutoring
prosum
plotting
sasaki
##hugh
imitating
burnside
kozai
scissors
awa
srm
vev
##det
##rene
##beh
##orbed
##plat
##tinal
subscrib
notch
redder
collector
trails
##ectivities
synonym
unco
slips
playground
youngest
hexatic
injector
dragon
quantifiable
misalignments
kuz
underestimates
microring
cubesat
handwriting
glycol
heteroskedastic
fitzhugh
sulph
unaccept
unfavorable
schizophren
bics
eev
fx
##arted
##asymptotic
chan
phill
unad
scored
leuk
expects
##illars
allot
defectors
linearizable
radiologist
flapping
centering
instants
triadic
regularised
landsl
reins
statics
icp
males
##zzi
peterson
nirspec
immunization
reconciled
quasicrystal
conceal
isochrone
1990s
##haber
platooning
ch3oh
microseconds
immobile
gadget
antiparallel
wyner
cervical
prethermal
cock
vn
veech
##no3
##oin
##omi
##omotor
exquisite
reass
##osomal
methylation
nonres
multiview
##overeign
securities
examinations
fluences
slack
##upied
##ommutative
lifest
pseudospectral
bigr
travels
denoise
hydride
ferroelectrics
ginibre
obscuring
ellipticals
witnesses
sisr
annihilate
encapsulate
photoelectrons
mammography
functoriality
scrutinize
dissociative
hydrogel
leray
dijk
sponsored
aj
bsc
##zk
staged
##rays
clamped
adas
transcribed
dimming
explode
somehow
flor
capita
concord
endo
primaries
boul
widening
irrotational
insensitivity
postprocessing
conformance
wiring
opponents
cancerous
lmxbs
saying
1975
garside
compressor
c2h
encapsulates
penta
fluorine
steganographic
buoyant
ekf
zwanz
ultrastrong
entrepreneur
polyphonic
umbrella
asia
boy
drosoph
fcs
s5
tss
##ucker
shots
sybil
imc
trgb
straton
pras
##encers
undulator
allost
singles
powders
posting
allowable
erased
biorthogonal
calculable
globalization
organizes
yetter
macpherson
makespan
21st
referencing
berkel
beside
dca
nanoclusters
bagging
nakayama
inapproxim
1980s
redefin
photoexcited
millennium
antagonistic
zircon
cactus
gowers
jax
r0
vains
##uyama
##rell
##wo
whith
churn
quot
##opolymer
adler
simulink
singlets
calend
codebase
squir
1300
cancellations
malle
submicron
sdf
reverses
##rapping
libra
degradations
flagellar
benford
lmi
rolls
1977
piezo
repeatable
ultralight
moonshine
superheavy
vainshtein
6m
bch
fci
pem
rcs
##nak
##bt
##around
provers
##vey
comodules
rebal
askey
paraph
nonexpan
desingular
conserves
banding
insecure
domino
ringdown
summability
implants
clinic
gpds
neglig
##airs
sgwb
kleene
bicycle
lipids
transductive
disrupting
loudness
reanaly
unforeseen
heck
hfs
lrs
##r2
##quant
##oport
##pheric
cole
persian
desider
##obis
glac
associa
normals
bandgaps
humanity
##oflu
pathwidth
maze
fluidic
spectroscopies
1100
rigidly
##enberger
pinched
denoised
mwc
osns
tabulated
innate
birefringent
downsampling
manganite
illegal
2i
ay
bse
cake
dse
eom
fell
lca
##gem
##isal
##irgs
areal
##opf
unle
plumes
multigraph
lart
howe
commits
localizes
flake
monster
freed
##aussian
deli
appliances
globule
##icki
sinai
sitting
diagonally
microg
asymmetrically
idealised
magnetizations
midpoint
volatil
mdm
dsr
attaching
grams
nbse
harmony
hemat
elastomers
rumors
purchasing
micrometers
vigorous
idiosyncratic
berkeley
dorm
dbs
mast
nft
nbs
ore
pfs
##erical
##uller
quorum
diurnal
canal
superf
verilog
belts
conjecturally
granted
152
fractionally
audiences
notebook
herding
gerbes
dialect
configure
pearl
brib
pics
peter
rater
##bus
##yrin
ante
strides
statist
shah
unsign
sclerosis
assert
##ipient
investing
photot
supra
encel
precisions
collaborating
myel
manifesting
gyrot
intermet
chirally
flipped
dispatching
1974
garment
sweet
galileo
erasures
editor
assimil
perceptrons
proprio
conveyed
safeguards
telluric
rabin
##riangulated
prosumers
drosophila
stratonovich
aec
brad
jer
l0
lump
sovereign
tense
##uon
##usi
##ican
##etta
stdp
reph
trending
tricks
unsh
unrolled
adept
pointers
distal
##ronts
discour
##acyclic
##scapes
hele
helper
pi0
packaging
##nea
##neys
photoassociation
laterally
gbps
sticking
buckled
strokes
##echnical
commensurability
raspberry
enceladus
c4
cous
dutch
fj
fete
kcal
o1
oo
##jor
##kv
##chemistry
##opological
cooking
##iciting
prefers
consult
blobs
biexc
asymptomatic
3dgs
cai
definability
constructively
##ophore
carbonate
##201
promptly
ceramics
mp2
leaking
reactants
cusum
cutoffs
civita
guesses
icmes
sonar
destabilizing
tautological
##iscovered
3h
hang
ned
wob
xrt
##asz
##omed
disability
parah
##opoulos
phasor
##orylation
##herland
quantizations
peo
specialist
specializations
relativistically
denaturation
geq0
citep
bridg
coulombic
unfeasible
recognizes
chromosomes
migdal
bcis
phosphate
infinitesimally
affords
kuber
disclosed
borrowed
subdivisions
territory
disjunction
assortative
unfairness
sutherland
panthe
##oblast
unoccupied
3t
b3
dre
tones
##entin
##omfort
stabilities
arq
distress
outwards
deflation
flocks
visiting
renal
baseband
lha
informativeness
##ystems
foils
abstracted
surviv
##graded
fmr
formerly
extinc
taxonomies
tolerate
ndcg
intricacies
permanently
neighbourhoods
##oriented
bohmian
##foam
octahedra
##character
dsphs
antipodal
pessimistic
5p
511
cbm
menger
ole
zeb
beij
shal
##ags
arima
energization
protr
carla
nucleic
cosmologically
refere
technic
impactful
slowed
bulky
protocluster
phonemes
143
dr1
airport
287
yangian
hyperscaling
manufacture
bimodality
hydrated
zeal
laden
kilop
witnessing
flashes
hypercyclic
sessile
preclude
anthropogenic
retrievers
duffing
quadcopter
phoenix
sympathetic
pantheon
aro
fda
gmc
mgs
nids
tik
##auth
##itional
##hot
thue
##eters
isop
##sibilities
chatter
nek
##appro
canadian
##uding
##udinal
evans
##uchus
la2
counties
detailing
pmu
148
gwas
displaystyle
personas
favours
stiffening
hydrides
tuber
cmssm
kilo
bags
tester
timestamps
subsamples
exfoliation
prosthetic
ophiuchus
volatilities
ede
fmm
##eser
##inski
proca
##abund
##ivable
superficial
superfl
feii
ami
blade
monoxide
lineage
equivalents
halper
aia
partisan
polyethylene
rapoport
##ogenetic
mlm
misinterpret
fueled
csr
007
svr
accumulates
hooke
featureless
honeyp
jeopard
batching
bypasses
bordered
civilization
interrogation
semilocal
astroparticle
aboard
017
battle
fub
ppt
yt
##rotic
##isa
exits
apical
##ando
incipient
plaint
abd
infants
electoral
defe
probab
quantised
kek
bandl
##rasing
frac1
fluctuates
antibodies
mcf
personalised
euro
proxima
##web
dls
prominently
berger
premature
fibrillation
wikid
unnatural
skipping
articulation
ccsne
indefinitely
intermediates
bisimil
incentivize
microservice
whitham
bou
fove
mmm
ovi
pts
ponder
rover
vhs
##fets
##gener
theft
##itons
##amatsu
##anding
inconc
speck
glove
understandings
fourfold
nodeless
##shell
##bsch
ellipses
fertil
synchronously
##ugues
strikes
coincidences
gwb
231
hologram
recognised
wavefronts
evaporative
hurdles
patching
werner
payloads
anthropic
advertisement
countermeasure
polymorphs
confronting
chloride
subpopulation
laalo
eigenspaces
embeddability
hippocam
##oresponse
storytelling
beijing
rfs
rugged
xt
##uven
##wered
##orr
wearing
withstand
##irst
disintegration
##opal
##phas
##adap
scd
scm
##estr
magnified
efficientnet
advective
homologies
takah
codebooks
vectorization
##titution
##arsec
influx
insulin
##player
##ophilic
initiates
pipes
portugues
instantly
chernoff
ccds
fulfil
sirens
mkdv
marsh
isochron
##arriers
knockoff
disfavored
pericenter
##2si2
unanswered
suprathermal
bati
paint
ruth
w2
##ictions
useless
interrupted
indentation
##atistical
popov
shorten
##oku
swcn
groundwater
elli
iterating
changepoint
subgo
162
##netes
sharpening
stealing
busy
hdl
mfg
filamentation
allocates
injects
kilometers
hmxbs
6000
venue
embrac
curricula
licensed
resummed
incapable
ofdma
inapplicable
schizophrenia
kubernetes
fubini
portuguese
bfs
ding
gone
kic
lou
lund
moll
##codes
##oner
interpersonal
##assing
incub
superfield
prebiotic
viii
tops
exams
crn
trion
roof
1232
choquet
quasif
caten
spreadsheet
cpm
##fferenti
dcnn
recognizable
nsf
ultracompact
plasmoid
repairing
v2v
gfm
nanofiber
vgg16
scaffolds
ought
ephemeris
fqh
1960s
caveats
glycerol
phillips
j00
mating
ott
vine
yolo
##aud
##iw
##rison
##otical
##orc
##arp
tod
trill
moire
confid
photochemical
cartil
devoid
refresh
mueller
swipt
alternates
authoring
mimick
sixteen
fractured
magnetoelastic
certifying
showcased
coalesce
compresses
liftings
photocath
overestimates
micromechanical
pomdps
grafting
misconceptions
bordism
carcinoma
g1
gst
lomb
mud
vasculature
##rus
##oining
##inov
##dian
datap
elite
collectivity
operadic
carl
nanoch
subsum
##lik
mediter
168
185
hexa
dpd
succession
mfcc
politic
quaternary
predomin
wheels
academy
commissioned
mislead
michelson
cereb
rebound
epitaxially
gabri
assortment
wavepackets
econometrics
cogent
nanocomposite
##abytes
tully
inconclusive
buc
rucl
##dam
##bul
aneur
##acic
##earth
##opp
##opy
##alloy
robert
crum
commonplace
harq
microdis
156
rigor
dispersing
##gnet
leftrightarrow
spreaders
1800
mrr
redundancies
metastatic
sandbox
audits
nakajima
##2o8
subtype
precedence
reparameterization
nmssm
##culosis
wikidata
bgg
goto
hss
ua
vh
##rings
##sys
##oves
##igan
reprocessing
shiba
matern
paw
pauc
experimenting
bi2te3
##cope
endurance
##olecule
transitively
ferrite
rls
hubert
injuries
sidon
nonreciprocity
volunteer
refrigeration
prescribing
##phenyl
obligations
overtone
gerstenhaber
zeldovich
2x10
jarz
mile
uci
w1
wen
##energy
##isky
##reasing
isos
spice
##ograd
unis
##atite
expulsion
##ibi
##engine
combating
semg
biophysics
##ofunc
scatters
nanoscopic
ideological
##arski
polyak
grs
recoverable
bull
raph
definitely
steered
heightened
suspect
motz
phylogeny
sidm
recursions
wester
jackson
uncontroll
nonpositive
promoter
invention
unparall
noninvasive
bangladesh
bry
dws
hoff
hrs
hinting
sce
##isability
##rev
spire
interrelated
esg
colder
ravi
photosynthesis
triage
wafers
##note
19th
publ
farming
adminis
142
clinician
navigational
dayside
complicating
reversibly
vicsek
unsaturated
wearables
underdamped
kelt
hemispheres
excessively
sacrifice
saniti
maneuvering
microstrip
verteb
stewart
cilia
docker
mediterranean
award
fand
kc
m0
sze
##hous
##oda
##otron
##ritis
##ocity
diabatic
unlic
plun
discounting
underutil
smf
##evol
hya
glimp
delt
##tinuity
wash
novelties
rotary
emptiness
microcal
ca2
tradition
cdr
##otype
imminent
##harge
headlines
pythag
perpendicularly
bicategory
silicates
stereoscopic
tactical
premises
handedness
teichmuller
tiered
coronagraphic
dollars
nuclides
prophet
mukai
glimpse
420
c18
eels
vega
##rat
##zr
##articles
##arelli
##itre
##amma
##ogarithm
tris
league
transonic
multipoint
liability
entrant
asymptotical
quasip
resident
##104
misfit
misunder
dr7
informally
imagination
subtree
holograms
diamagnetism
1973
peps
oxidized
snowmass
uranus
stereotypes
hyperpolar
##environ
nonexpansive
lhaaso
hippocampus
jarzynski
motzkin
unparalleled
unlicensed
cib
felt
h3
jb
kiss
lakes
tat
vmc
##fitting
##3net
##aced
##irt
disulfide
neyman
stateful
complexified
##ublic
##enched
193
facile
runtimes
illusion
gao
submodule
geodesically
svhn
hyperspherical
renewables
harmonization
neuroevolution
disposal
affirmatively
trimming
fuchs
kumar
deliberate
discharging
##volume
ephemerides
grafted
symposi
kinesin
paraphrase
tuberculosis
530
cj
erad
iro
jur
lsh
sae
##hai
anova
##olsky
##lysis
whittle
##idi
shm
truck
untwisted
basing
arity
expedi
minis
trader
triebel
roton
184
drilling
##2023
##zek
##guard
yearly
truncating
mosc
##poke
zhao
overdetermined
suboptimality
forgot
ancilla
amalgamated
empathetic
disaggregated
troubles
matsub
deferred
meticulously
palindromic
trispectrum
takahashi
lav
oii
pink
tion
tard
##iarity
##bird
##oons
##jek
##lib
##wal
##vas
stol
exiting
beacon
compiling
dearth
matric
unspec
##ardt
multiway
##eving
binarity
eds
sla
insects
convnets
hadoop
msol
coping
##2021
239
bespoke
crystallinity
rounded
startup
hypersonic
coronae
bcgs
pushforward
azimuthally
isostructural
disagre
streets
reinforces
pioneered
finetuned
extrusion
attractions
preceded
administrators
pebbles
hoyle
friedrichs
4u
bx
hail
lvert
mouth
pest
rician
tort
zk
##rents
##fically
thri
forty
conifold
##ample
spencer
clf
##phal
##ipe
sme
comparability
anymore
crisp
hyperd
polarizing
buying
halting
influencers
resolvable
magnetocon
ga2o3
persistently
coinciding
cuo2
vanishingly
denoisers
##cuo4
deflag
submodularity
destabilize
bibliographic
advertisements
reparametrization
reprove
shubnikov
dangling
diffusivities
suicide
prasad
hacking
tir
##hc
##jn
##amer
##terms
##raps
cheng
quo
tracts
eliciting
abra
directivity
capsid
##develop
polaronic
archived
helim
aftersh
analogical
farmers
cdte
benefited
initiating
eck
bigo
tightening
buildup
activating
submer
submatrix
016
ipv
nonnegativity
exceedingly
prioritizes
beds
linden
aleatoric
freshness
youtu
conferencing
vvc
descendants
sachdev
radionucl
lizorkin
matsubara
3x10
8m
horm
mia
n1
qpi
vista
wron
##zo
##mus
##late
##stro
##ulse
##odo
##emigrou
##utz
##agami
diet
##ermonde
superch
smells
allele
biquadratic
convnet
specifics
kernelization
recommends
304
marketplaces
neurop
rfid
cyclical
supercell
koe
repairs
destroying
akari
timesteps
##ocyte
reusability
william
fingering
blueshifted
hostile
judiciously
vandermonde
forgotten
3b
3o
bure
lop
poc
##oof
trich
##angular
police
presentable
206
shortened
sinogram
snps
reliant
artist
milliar
dissipate
141
cfht
dbms
asynchronously
otto
contagious
fluoride
eigenmode
inhibitors
appreciably
nanoantennas
deliberation
bost
cpr
gec
ild
molar
nqr
##nav
##sup
##hun
##yter
##wald
##erz
##anual
##plit
##utability
##antz
unparticle
##erment
timings
recharge
##vier
##ardo
geophysics
plancher
##spr
##onalities
factorizable
barred
literatures
psychi
satisfiable
poorer
maruyama
dbp
cnc
lsb
ubiquitously
hampers
autocovari
evidential
hypercubes
testbeds
dressel
bakry
wigg
sepsis
##vergence
##ovisual
symposium
plancherel
cet
dti
gur
gbs
pets
##kn
##wf
##edged
to0
##otechnical
##abric
scc
incom
smp
speculated
amate
##chikov
delete
maximin
populating
ski
communicates
socle
swarming
coreference
damaging
constitution
ssr
annuli
cleaned
winners
coalescences
anatomically
##iscus
ridges
##sr0
unnotic
minerals
passiv
subtyping
nichols
##sheets
chondrites
dibaryon
blueshift
splicing
reionisation
pipelined
confidently
cti
golds
json
mount
x1
##model
##gy
##wing
##version
##oson
##chine
##apore
subbands
infar
underpins
newsp
smoke
minuscule
understudied
factorize
##afs
squad
unitaries
pulsing
##yll
mlps
thirteen
perfectoid
1700
##2015
meshless
opposition
circumnuclear
placements
dcm
mpm
transparently
ukraine
declared
nutrients
uncountably
impressions
pollutants
entitled
dresselhaus
ftir
hott
pach
qpt
##o6
##pian
##acal
unnormal
adder
diffus
solutes
supercur
##mmorphic
singapore
erc
evaluators
refute
interprets
transference
privately
##lones
scientifically
malfunction
csd
##burn
sfh
reverting
##slag
fibred
insufficiently
askap
unmatched
laptop
crops
chronological
baumslag
hookrightarrow
iptf
restructuring
lyndon
reinsurance
9x
dgs
dump
ged
irid
kbs
vits
##uplet
##fil
##lang
##2k
##etrack
##entropy
##olod
##thest
intension
obstructed
nonequ
multiplayer
mover
regolith
extriangulated
##eping
overconf
electromy
##ompati
excites
absorptive
mllm
silhou
30m
drill
shifters
216
daunting
bfgs
svc
revisits
011
421
cracking
underdetermined
polylogarithms
parsecs
revivals
drainage
coherency
upload
webpage
announcement
retire
##eptide
bi2sr
inadvert
ischemic
uncontrollable
6s
duct
hap
jd
jim
vsi
wb
##cai
##du
##tane
conics
##ouns
genie
coral
assure
##egree
outg
limiter
constriction
monaural
photometrically
parameterisation
backaction
humanities
fourteen
iiot
goe
mahal
rankin
viewers
baroclinic
heteronuclear
urca
marching
008
intran
325
metastasis
enumerated
nanocavity
practitioner
capacitated
wolff
##ampal
physicochemical
wfirst
staying
pentagonal
prolongation
preemptive
datacenter
acklund
wonderful
decarbonization
nonresonant
cartilage
4p
eti
fts
iov
ritz
sfs
yor
##qm
##asaki
deepl
apri
sims
##obe
superstructure
##ibo
flock
coda
suprime
mixer
affiliation
normalize
layering
crew
dualizing
formalisation
boris
pdms
na61
penalizing
switchbacks
huy
hux
justifications
extinct
diamonds
endows
spurred
permeable
antares
hpge
judges
muscul
departments
symmetrizable
cygni
unmodified
vilkov
lanthanide
##enhagen
zamolod
dysarthric
plaintext
bandlimited
eating
frs
heg
mbr
tps
yak
##llm
##elo
[...]
